{
  "version": "1.0",
  "truncation": null,
  "padding": null,
  "added_tokens": [
    {
      "id": 0,
      "content": "<|endoftext|>",
      "single_word": false,
      "lstrip": false,
      "rstrip": false,
      "normalized": false,
      "special": true
    }
  ],
  "normalizer": null,
  "pre_tokenizer": {
    "type": "ByteLevel",
    "add_prefix_space": false,
    "trim_offsets": true,
    "use_regex": true
  },
  "post_processor": null,
  "decoder": {
    "type": "ByteLevel",
    "add_prefix_space": true,
    "trim_offsets": true,
    "use_regex": true
  },
  "model": {
    "type": "BPE",
    "dropout": null,
    "unk_token": null,
    "continuing_subword_prefix": null,
    "end_of_word_suffix": null,
    "fuse_unk": false,
    "byte_fallback": false,
    "ignore_merges": false,
    "vocab": {
      "<|endoftext|>": 0,
      "!": 1,
      "\"": 2,
      "#": 3,
      "$": 4,
      "%": 5,
      "&": 6,
      "'": 7,
      "(": 8,
      ")": 9,
      "*": 10,
      "+": 11,
      ",": 12,
      "-": 13,
      ".": 14,
      "/": 15,
      "0": 16,
      "1": 17,
      "2": 18,
      "3": 19,
      "4": 20,
      "5": 21,
      "6": 22,
      "7": 23,
      "8": 24,
      "9": 25,
      ":": 26,
      ";": 27,
      "<": 28,
      "=": 29,
      ">": 30,
      "?": 31,
      "@": 32,
      "A": 33,
      "B": 34,
      "C": 35,
      "D": 36,
      "E": 37,
      "F": 38,
      "G": 39,
      "H": 40,
      "I": 41,
      "J": 42,
      "K": 43,
      "L": 44,
      "M": 45,
      "N": 46,
      "O": 47,
      "P": 48,
      "Q": 49,
      "R": 50,
      "S": 51,
      "T": 52,
      "U": 53,
      "V": 54,
      "W": 55,
      "X": 56,
      "Y": 57,
      "Z": 58,
      "[": 59,
      "\\": 60,
      "]": 61,
      "^": 62,
      "_": 63,
      "`": 64,
      "a": 65,
      "b": 66,
      "c": 67,
      "d": 68,
      "e": 69,
      "f": 70,
      "g": 71,
      "h": 72,
      "i": 73,
      "j": 74,
      "k": 75,
      "l": 76,
      "m": 77,
      "n": 78,
      "o": 79,
      "p": 80,
      "q": 81,
      "r": 82,
      "s": 83,
      "t": 84,
      "u": 85,
      "v": 86,
      "w": 87,
      "x": 88,
      "y": 89,
      "z": 90,
      "{": 91,
      "|": 92,
      "}": 93,
      "~": 94,
      "¡": 95,
      "¢": 96,
      "£": 97,
      "¤": 98,
      "¥": 99,
      "¦": 100,
      "§": 101,
      "¨": 102,
      "©": 103,
      "ª": 104,
      "«": 105,
      "¬": 106,
      "®": 107,
      "¯": 108,
      "°": 109,
      "±": 110,
      "²": 111,
      "³": 112,
      "´": 113,
      "µ": 114,
      "¶": 115,
      "·": 116,
      "¸": 117,
      "¹": 118,
      "º": 119,
      "»": 120,
      "¼": 121,
      "½": 122,
      "¾": 123,
      "¿": 124,
      "À": 125,
      "Á": 126,
      "Â": 127,
      "Ã": 128,
      "Ä": 129,
      "Å": 130,
      "Æ": 131,
      "Ç": 132,
      "È": 133,
      "É": 134,
      "Ê": 135,
      "Ë": 136,
      "Ì": 137,
      "Í": 138,
      "Î": 139,
      "Ï": 140,
      "Ð": 141,
      "Ñ": 142,
      "Ò": 143,
      "Ó": 144,
      "Ô": 145,
      "Õ": 146,
      "Ö": 147,
      "×": 148,
      "Ø": 149,
      "Ù": 150,
      "Ú": 151,
      "Û": 152,
      "Ü": 153,
      "Ý": 154,
      "Þ": 155,
      "ß": 156,
      "à": 157,
      "á": 158,
      "â": 159,
      "ã": 160,
      "ä": 161,
      "å": 162,
      "æ": 163,
      "ç": 164,
      "è": 165,
      "é": 166,
      "ê": 167,
      "ë": 168,
      "ì": 169,
      "í": 170,
      "î": 171,
      "ï": 172,
      "ð": 173,
      "ñ": 174,
      "ò": 175,
      "ó": 176,
      "ô": 177,
      "õ": 178,
      "ö": 179,
      "÷": 180,
      "ø": 181,
      "ù": 182,
      "ú": 183,
      "û": 184,
      "ü": 185,
      "ý": 186,
      "þ": 187,
      "ÿ": 188,
      "Ā": 189,
      "ā": 190,
      "Ă": 191,
      "ă": 192,
      "Ą": 193,
      "ą": 194,
      "Ć": 195,
      "ć": 196,
      "Ĉ": 197,
      "ĉ": 198,
      "Ċ": 199,
      "ċ": 200,
      "Č": 201,
      "č": 202,
      "Ď": 203,
      "ď": 204,
      "Đ": 205,
      "đ": 206,
      "Ē": 207,
      "ē": 208,
      "Ĕ": 209,
      "ĕ": 210,
      "Ė": 211,
      "ė": 212,
      "Ę": 213,
      "ę": 214,
      "Ě": 215,
      "ě": 216,
      "Ĝ": 217,
      "ĝ": 218,
      "Ğ": 219,
      "ğ": 220,
      "Ġ": 221,
      "ġ": 222,
      "Ģ": 223,
      "ģ": 224,
      "Ĥ": 225,
      "ĥ": 226,
      "Ħ": 227,
      "ħ": 228,
      "Ĩ": 229,
      "ĩ": 230,
      "Ī": 231,
      "ī": 232,
      "Ĭ": 233,
      "ĭ": 234,
      "Į": 235,
      "į": 236,
      "İ": 237,
      "ı": 238,
      "Ĳ": 239,
      "ĳ": 240,
      "Ĵ": 241,
      "ĵ": 242,
      "Ķ": 243,
      "ķ": 244,
      "ĸ": 245,
      "Ĺ": 246,
      "ĺ": 247,
      "Ļ": 248,
      "ļ": 249,
      "Ľ": 250,
      "ľ": 251,
      "Ŀ": 252,
      "ŀ": 253,
      "Ł": 254,
      "ł": 255,
      "Ń": 256,
      "Ġd": 257,
      "es": 258,
      "Ġl": 259,
      "en": 260,
      "Ã©": 261,
      "ai": 262,
      "on": 263,
      "Ġp": 264,
      "ou": 265,
      "Ġs": 266,
      "re": 267,
      "Ġc": 268,
      "an": 269,
      "qu": 270,
      "Ġde": 271,
      "er": 272,
      "et": 273,
      "Ġa": 274,
      "ĠĠ": 275,
      "le": 276,
      "Ġm": 277,
      "Ġqu": 278,
      "ent": 279,
      "te": 280,
      "ne": 281,
      "ar": 282,
      "Ġla": 283,
      "ait": 284,
      "il": 285,
      "is": 286,
      "Ġv": 287,
      "eu": 288,
      "Ġf": 289,
      "Ġt": 290,
      "Ġet": 291,
      "it": 292,
      "in": 293,
      "Ġle": 294,
      "om": 295,
      "or": 296,
      "Ġu": 297,
      "Ãł": 298,
      "el": 299,
      "our": 300,
      "Ġn": 301,
      "ant": 302,
      "as": 303,
      "me": 304,
      "au": 305,
      "Ġb": 306,
      "Ġr": 307,
      "est": 308,
      "ous": 309,
      "ur": 310,
      "Ġles": 311,
      "oi": 312,
      "ĠĠĠĠ": 313,
      "at": 314,
      "us": 315,
      "ĠÃł": 316,
      "ans": 317,
      "ais": 318,
      "ch": 319,
      "Ã¨": 320,
      "Ġj": 321,
      "ce": 322,
      "Ã©t": 323,
      "Ġen": 324,
      "âĢ": 325,
      "âĢĻ": 326,
      "ion": 327,
      "se": 328,
      "Ġg": 329,
      "Ġdes": 330,
      "Ġque": 331,
      "Ġun": 332,
      "Ġqui": 333,
      "al": 334,
      "ro": 335,
      "ri": 336,
      "ont": 337,
      "Ġau": 338,
      "ment": 339,
      "de": 340,
      "Ãª": 341,
      "res": 342,
      "Ġav": 343,
      "Ġpar": 344,
      "Ġdans": 345,
      "Ġdu": 346,
      "--": 347,
      "Ġh": 348,
      "tre": 349,
      "Ġse": 350,
      "ie": 351,
      "Ġre": 352,
      "Ġil": 353,
      "Ġch": 354,
      "ĠL": 355,
      "que": 356,
      "ui": 357,
      "av": 358,
      "Ġpas": 359,
      "out": 360,
      "eur": 361,
      "ĠC": 362,
      "ol": 363,
      "Ġune": 364,
      "Ġce": 365,
      "ag": 366,
      "ons": 367,
      "omme": 368,
      "Ġpl": 369,
      "ran": 370,
      "Ġne": 371,
      "Ġest": 372,
      "ien": 373,
      "les": 374,
      "ĠÃ©t": 375,
      "elle": 376,
      "ab": 377,
      "os": 378,
      "mp": 379,
      "ain": 380,
      "Il": 381,
      "ette": 382,
      "ir": 383,
      "ouv": 384,
      "ier": 385,
      "Ã©e": 386,
      "Ġpour": 387,
      "un": 388,
      "end": 389,
      "Ã©s": 390,
      "ap": 391,
      "ec": 392,
      "eux": 393,
      "Ġsur": 394,
      "ĠM": 395,
      "ĠĠĠĠĠĠĠĠ": 396,
      "Ġpr": 397,
      "ff": 398,
      "ort": 399,
      "am": 400,
      "ĊĊ": 401,
      "ig": 402,
      "Ġvous": 403,
      "Ġson": 404,
      "Ã¨re": 405,
      "Ġe": 406,
      "ĠÃ©": 407,
      "aient": 408,
      "Ġplus": 409,
      "ac": 410,
      "ation": 411,
      "ic": 412,
      "Ġtr": 413,
      "ĠD": 414,
      "ĠIl": 415,
      "ĠP": 416,
      "ut": 417,
      "ue": 418,
      "Ġtout": 419,
      "Ġje": 420,
      "iv": 421,
      "ĠĠĠ": 422,
      "Ġin": 423,
      "ois": 424,
      "pr": 425,
      "oir": 426,
      "che": 427,
      "uis": 428,
      "Ġo": 429,
      "onn": 430,
      "ard": 431,
      "ĠS": 432,
      "ux": 433,
      "Ġlui": 434,
      "Ġcette": 435,
      "mes": 436,
      "ers": 437,
      "ĠJ": 438,
      "ge": 439,
      "ĠdÃ©": 440,
      "aire": 441,
      "ille": 442,
      "Ġcom": 443,
      "Ġavait": 444,
      "ĠE": 445,
      "ond": 446,
      "Ġsa": 447,
      "une": 448,
      "Ġy": 449,
      "and": 450,
      "ĠV": 451,
      "ĠÃ©tait": 452,
      "si": 453,
      "lle": 454,
      "Ġpro": 455,
      "Ġcomme": 456,
      "oin": 457,
      "Ã¢": 458,
      "bl": 459,
      "ot": 460,
      "Ġpeu": 461,
      "ire": 462,
      "ill": 463,
      "Ġsi": 464,
      "Ġavec": 465,
      "omb": 466,
      "ĠA": 467,
      "ble": 468,
      "pl": 469,
      "ure": 470,
      "Ġvo": 471,
      "ci": 472,
      "eau": 473,
      "ĊĠĠĠ": 474,
      "able": 475,
      "tÃ©": 476,
      "ine": 477,
      "Ġnous": 478,
      "Ġfait": 479,
      "Ġces": 480,
      "um": 481,
      "id": 482,
      "ique": 483,
      "ez": 484,
      "Ġgran": 485,
      "ĠrÃ©": 486,
      "ĠT": 487,
      "tes": 488,
      "Ġon": 489,
      "ul": 490,
      "ra": 491,
      "Ã¨s": 492,
      "Ġdit": 493,
      "Ġent": 494,
      "age": 495,
      "ĊĠ": 496,
      "Ġdeux": 497,
      "ieu": 498,
      "ĠB": 499,
      "ĠF": 500,
      "par": 501,
      "uit": 502,
      "Ã¹": 503,
      "ll": 504,
      "Ã©tait": 505,
      "Ġme": 506,
      "Ġ_": 507,
      "ite": 508,
      "oup": 509,
      "Ġmais": 510,
      "Ã´": 511,
      "itÃ©": 512,
      "Ã©n": 513,
      "aut": 514,
      "onne": 515,
      "Ġmon": 516,
      "ens": 517,
      "Qu": 518,
      "ad": 519,
      "Ã®": 520,
      "Ġses": 521,
      "Ã©r": 522,
      "Ġquel": 523,
      "la": 524,
      "Ã§": 525,
      "Ġou": 526,
      "ĠG": 527,
      "ist": 528,
      "Ġaux": 529,
      "Ġbien": 530,
      "oute": 531,
      "ĠO": 532,
      "ord": 533,
      "eurs": 534,
      "Ġar": 535,
      "Ãªtre": 536,
      "Ġbr": 537,
      "ĠLe": 538,
      "Ġte": 539,
      "ence": 540,
      "orte": 541,
      "Ġdev": 542,
      "Ġelle": 543,
      "im": 544,
      "Ãªme": 545,
      "rÃ©": 546,
      "oy": 547,
      "ĠR": 548,
      "ĠJe": 549,
      "Ġap": 550,
      "ve": 551,
      "ert": 552,
      "ques": 553,
      "Ã©c": 554,
      "Ġgrand": 555,
      "app": 556,
      "iss": 557,
      ".--": 558,
      "Ġser": 559,
      "ang": 560,
      "ĠoÃ¹": 561,
      "Ã»": 562,
      "ours": 563,
      "ĠH": 564,
      "ore": 565,
      "em": 566,
      "Ã©es": 567,
      "ions": 568,
      "Ġsu": 569,
      "Ġsont": 570,
      "aine": 571,
      "ante": 572,
      "erre": 573,
      "ass": 574,
      "ĠN": 575,
      "onc": 576,
      "op": 577,
      "Ġdis": 578,
      "Ġsans": 579,
      "urs": 580,
      "ela": 581,
      "oire": 582,
      "Ġex": 583,
      "ĠLa": 584,
      "ants": 585,
      "Le": 586,
      "Ġtous": 587,
      "st": 588,
      "ieux": 589,
      "bre": 590,
      "Ġfr": 591,
      "ay": 592,
      "iÃ¨re": 593,
      "Ġcont": 594,
      "Ġma": 595,
      "aux": 596,
      "anc": 597,
      "ter": 598,
      "ommes": 599,
      "des": 600,
      "oit": 601,
      "ose": 602,
      "ti": 603,
      "eure": 604,
      "Ġvie": 605,
      "ance": 606,
      "Ġcon": 607,
      "oul": 608,
      "Ãªte": 609,
      "oc": 610,
      "Ġmar": 611,
      "mps": 612,
      "ale": 613,
      "tr": 614,
      "Ġsous": 615,
      "aiss": 616,
      "Ġres": 617,
      "ĠÃ©c": 618,
      "Ġ1": 619,
      "Ġgr": 620,
      "rois": 621,
      "..": 622,
      "ĠĠĠĠĠĠĠĠĠĠĠĠĠĠĠĠ": 623,
      "Ġhomme": 624,
      "Ġmain": 625,
      "oule": 626,
      "Ġfor": 627,
      "ils": 628,
      "ign": 629,
      "rem": 630,
      "Ġleur": 631,
      "Ġjour": 632,
      "ug": 633,
      "imp": 634,
      "Je": 635,
      "if": 636,
      "tres": 637,
      "ement": 638,
      "Ġpass": 639,
      "Ġenc": 640,
      "ors": 641,
      "ib": 642,
      "Ġas": 643,
      "Â«": 644,
      "Ġes": 645,
      "Ġreg": 646,
      "rance": 647,
      "homme": 648,
      "ĠmÃªme": 649,
      "Et": 650,
      "ace": 651,
      "ient": 652,
      "Ġcons": 653,
      "ex": 654,
      "ĠU": 655,
      "vous": 656,
      "ces": 657,
      "oint": 658,
      "avait": 659,
      "Ġdem": 660,
      "ing": 661,
      "ombre": 662,
      "ĠlÃł": 663,
      "Ã»t": 664,
      "Ġpet": 665,
      "Ġcela": 666,
      "auv": 667,
      "_.": 668,
      "cher": 669,
      "Ġtoutes": 670,
      "iÃ¨": 671,
      "Ġai": 672,
      "ise": 673,
      "La": 674,
      "roit": 675,
      "ĠLes": 676,
      "ĠQu": 677,
      "endre": 678,
      "ole": 679,
      "tion": 680,
      "Ġjus": 681,
      "Ġfaire": 682,
      "Ġpuis": 683,
      "ĠOn": 684,
      "Ġcr": 685,
      "Ġven": 686,
      "Ġac": 687,
      "prit": 688,
      "igne": 689,
      "Ġcl": 690,
      "elles": 691,
      "ouver": 692,
      "Ġmoi": 693,
      "Ġdi": 694,
      "Ġper": 695,
      "Ġvoi": 696,
      "aÃ®": 697,
      "teur": 698,
      "Ġcoup": 699,
      "asse": 700,
      "Ġmal": 701,
      "Ġencore": 702,
      "rait": 703,
      "Ġcomm": 704,
      "Ġpeut": 705,
      "Ġpart": 706,
      "ĠPar": 707,
      "oment": 708,
      "autre": 709,
      "Ġtou": 710,
      "Ã©g": 711,
      "ubl": 712,
      "nes": 713,
      "iers": 714,
      "Ġont": 715,
      "tu": 716,
      "Ġdire": 717,
      "Ã©d": 718,
      "je": 719,
      "Ġenf": 720,
      "omp": 721,
      "rai": 722,
      "Ġpoint": 723,
      "Ġpres": 724,
      "ĠEt": 725,
      "Ġentre": 726,
      "Ġmort": 727,
      "ob": 728,
      "Ġseu": 729,
      "Ġcri": 730,
      "Ġcar": 731,
      "sement": 732,
      "Â»": 733,
      "Ġ(": 734,
      "Ġtu": 735,
      "ĠrÃ©p": 736,
      "Ġtemps": 737,
      "Ġcour": 738,
      "ĠÃ©tÃ©": 739,
      "Ġdont": 740,
      "Ġco": 741,
      "Ġrien": 742,
      "ĠFrance": 743,
      "Ġquelque": 744,
      "Ġat": 745,
      "Ġall": 746,
      "aint": 747,
      "ong": 748,
      "eut": 749,
      "Ġam": 750,
      "Ġtoute": 751,
      "Ġmoment": 752,
      "Ġpeup": 753,
      "emp": 754,
      "ide": 755,
      "Ġtomb": 756,
      "Ġapp": 757,
      "ari": 758,
      "Ġsuis": 759,
      "Ġnom": 760,
      "Ġtrav": 761,
      "air": 762,
      "ations": 763,
      "Ġfer": 764,
      "ins": 765,
      "ense": 766,
      "Ġfais": 767,
      "Ġsort": 768,
      "ĠCe": 769,
      "Ġhommes": 770,
      "riv": 771,
      "ret": 772,
      "endant": 773,
      "ouff": 774,
      "Ã©l": 775,
      "Ã©p": 776,
      "Ġfem": 777,
      "ĠCh": 778,
      "enir": 779,
      "ches": 780,
      "all": 781,
      "Ġrep": 782,
      "Ġcet": 783,
      "att": 784,
      "he": 785,
      "rent": 786,
      "Ġeff": 787,
      "itu": 788,
      "otre": 789,
      "Ġmes": 790,
      "Ġab": 791,
      "ici": 792,
      "Ġvotre": 793,
      "Ġregard": 794,
      "Ġchose": 795,
      "aud": 796,
      "jours": 797,
      "aille": 798,
      "Ġbon": 799,
      "mer": 800,
      "ev": 801,
      "ict": 802,
      "og": 803,
      "Ãī": 804,
      "Ġporte": 805,
      "Ġtour": 806,
      "illes": 807,
      "cl": 808,
      "ses": 809,
      "II": 810,
      "Ġfl": 811,
      "Ġpetit": 812,
      "Ġmont": 813,
      "ies": 814,
      "ourd": 815,
      "Ġtrois": 816,
      "Ġfut": 817,
      "rit": 818,
      "Ġnuit": 819,
      "aill": 820,
      "pec": 821,
      "Ġsem": 822,
      "ĠÃªtre": 823,
      "Ġvers": 824,
      "ade": 825,
      "Ġprem": 826,
      "Ġrec": 827,
      "Ġ(_": 828,
      "puis": 829,
      "atre": 830,
      "Ġjeu": 831,
      "Ġ18": 832,
      "Ġbeau": 833,
      "prÃ¨s": 834,
      "sc": 835,
      "Ã©ri": 836,
      "Ġdevant": 837,
      "int": 838,
      "enf": 839,
      "Ã©v": 840,
      "ĠParis": 841,
      "Ġvoy": 842,
      "ĠElle": 843,
      "Ġple": 844,
      "Ġprof": 845,
      "oins": 846,
      "Ġsent": 847,
      "Ġmot": 848,
      "ents": 849,
      "Ġdonc": 850,
      "orm": 851,
      "Ġils": 852,
      "Les": 853,
      "du": 854,
      "pos": 855,
      "Ġder": 856,
      "Ġatt": 857,
      "qui": 858,
      "Ġimp": 859,
      "Ġbar": 860,
      "ied": 861,
      "Ġdonn": 862,
      "Ġgu": 863,
      "Ġquand": 864,
      "Ġdou": 865,
      "_,": 866,
      "sus": 867,
      "quel": 868,
      "art": 869,
      "ĠDieu": 870,
      "ieur": 871,
      "ĠtÃªte": 872,
      "ussi": 873,
      "Ġport": 874,
      "Ġrev": 875,
      "Ġfois": 876,
      "._": 877,
      "ress": 878,
      "ente": 879,
      "Ġyeux": 880,
      "ments": 881,
      "arius": 882,
      "iens": 883,
      "ail": 884,
      "ues": 885,
      "Ġvoix": 886,
      "up": 887,
      "agne": 888,
      "ĠÃ©p": 889,
      "Ġni": 890,
      "ages": 891,
      "Ġdroit": 892,
      "ution": 893,
      "ach": 894,
      "gl": 895,
      "Ġtoujours": 896,
      "rop": 897,
      "Ġfaut": 898,
      "Ġpeuple": 899,
      "Ġad": 900,
      "Ġpos": 901,
      "Ġpouv": 902,
      "ĠDe": 903,
      "agn": 904,
      "gn": 905,
      "ĊĠĠĠĠĠĠĠĠ": 906,
      "ver": 907,
      "onsieur": 908,
      "ĠÂ«": 909,
      "omm": 910,
      "ĊĊĊĊ": 911,
      "ĠĠĠĠĠĠĠ": 912,
      "Ġroi": 913,
      "imm": 914,
      "Ãªt": 915,
      "Ġchar": 916,
      "ĠEn": 917,
      "amais": 918,
      "enant": 919,
      "Ġpe": 920,
      "Ġhum": 921,
      "Ġbl": 922,
      "Ce": 923,
      "are": 924,
      "ĠcÃ´": 925,
      "arde": 926,
      "enc": 927,
      "Ġpens": 928,
      "Ġviv": 929,
      "dans": 930,
      "ice": 931,
      "lement": 932,
      "tant": 933,
      "bres": 934,
      "Ġsol": 935,
      "onde": 936,
      "cle": 937,
      "Ġcol": 938,
      "issement": 939,
      "ĠQ": 940,
      "inc": 941,
      "iste": 942,
      "heure": 943,
      "Ġsec": 944,
      "Ġfran": 945,
      "roi": 946,
      "Ã©m": 947,
      "Ġvis": 948,
      "Ġrue": 949,
      "Ġpo": 950,
      "vent": 951,
      "riÃ¨re": 952,
      "ate": 953,
      "Ġvoir": 954,
      "Ġautre": 955,
      "Ġcontre": 956,
      "Ġleurs": 957,
      "rie": 958,
      "Ġlib": 959,
      "ON": 960,
      "use": 961,
      "Ġparl": 962,
      "En": 963,
      "ros": 964,
      "Ġob": 965,
      "aute": 966,
      "lÃł": 967,
      "sez": 968,
      "Ġans": 969,
      "Ãªtes": 970,
      "Ġterre": 971,
      "Ġsais": 972,
      "Ġrem": 973,
      "Ġpay": 974,
      "ictor": 975,
      "hui": 976,
      "Ġfemme": 977,
      "iques": 978,
      "ures": 979,
      "sem": 980,
      "tour": 981,
      "ĠdÃ©s": 982,
      "Ġaussi": 983,
      "Ġemp": 984,
      "ĠVous": 985,
      "Ġpris": 986,
      "Âł": 987,
      "Ġmonde": 988,
      "Ġpied": 989,
      "ĠUn": 990,
      "iqu": 991,
      "ugo": 992,
      "ĠÃ©taient": 993,
      "pe": 994,
      "Ch": 995,
      "jourd": 996,
      "Ġfond": 997,
      "ature": 998,
      "Ġgrande": 999,
      "Ġcor": 1000,
      "jean": 1001,
      "aise": 1002,
      "aljean": 1003,
      "vre": 1004,
      "Ã¢me": 1005,
      "Ġman": 1006,
      "yn": 1007,
      "Ġeu": 1008,
      "Ġso": 1009,
      "Ġpers": 1010,
      "aque": 1011,
      "Ġmoins": 1012,
      "Ġgl": 1013,
      "ables": 1014,
      "ets": 1015,
      "Ġlong": 1016,
      "Ġchev": 1017,
      "Ġbou": 1018,
      "ete": 1019,
      "Ġnon": 1020,
      "Ġsal": 1021,
      "ĠHugo": 1022,
      "Ġacc": 1023,
      "iel": 1024,
      "Ġter": 1025,
      "Ġquatre": 1026,
      "Ġquelques": 1027,
      "Ġjamais": 1028,
      "ition": 1029,
      "ell": 1030,
      "enait": 1031,
      "ile": 1032,
      "ĠJean": 1033,
      "ud": 1034,
      "Ġbas": 1035,
      "ande": 1036,
      "Ġvieux": 1037,
      "Ġan": 1038,
      "ĠValjean": 1039,
      "ĠprÃ©s": 1040,
      "ĠpÃ¨re": 1041,
      "fois": 1042,
      "auche": 1043,
      "be": 1044,
      "dre": 1045,
      "Ġva": 1046,
      "iÃ¨me": 1047,
      "ettre": 1048,
      "oses": 1049,
      "Ġnotre": 1050,
      "Ġsup": 1051,
      "ras": 1052,
      "ĠMarius": 1053,
      "Ġsoit": 1054,
      "ainsi": 1055,
      "Ġmur": 1056,
      "Ã¨rent": 1057,
      "osette": 1058,
      "ĠMais": 1059,
      "Ġliv": 1060,
      "uc": 1061,
      "entre": 1062,
      "Ġver": 1063,
      "Ġheure": 1064,
      "Un": 1065,
      "LE": 1066,
      "ser": 1067,
      "Ġgen": 1068,
      "Ġvol": 1069,
      "Ġavoir": 1070,
      "Ġjusqu": 1071,
      "Ġnos": 1072,
      "ats": 1073,
      "ĠaprÃ¨s": 1074,
      "Ġfort": 1075,
      "ublique": 1076,
      "Ġass": 1077,
      "Ġsouff": 1078,
      "iÃ©": 1079,
      "Ã´t": 1080,
      "Ġsav": 1081,
      "oie": 1082,
      "Ġfit": 1083,
      "ame": 1084,
      "Ġpol": 1085,
      "pect": 1086,
      "tout": 1087,
      "pt": 1088,
      "Ġrest": 1089,
      "ĠprÃ¨s": 1090,
      "Ġvrai": 1091,
      "Ġainsi": 1092,
      "Ã©ch": 1093,
      "Ġmis": 1094,
      "Ġvoul": 1095,
      "Ġhaut": 1096,
      "ĠcÃ´tÃ©": 1097,
      "ĠgÃ©n": 1098,
      "Ġtrouv": 1099,
      "Ã¢t": 1100,
      "mÃªme": 1101,
      "Ġlaiss": 1102,
      "Ġtri": 1103,
      "ĠeÃ»t": 1104,
      "Ġliber": 1105,
      "ere": 1106,
      "ains": 1107,
      "Ġjeune": 1108,
      "ix": 1109,
      "ĠrÃ©pond": 1110,
      "ilÃł": 1111,
      "Ġfin": 1112,
      "ÃĢ": 1113,
      "vol": 1114,
      "ingt": 1115,
      "Ġreste": 1116,
      "Ġsui": 1117,
      "ern": 1118,
      "Ġaff": 1119,
      "Ġtant": 1120,
      "roy": 1121,
      "sur": 1122,
      "aires": 1123,
      "Ġloi": 1124,
      "ze": 1125,
      "gr": 1126,
      "Ġville": 1127,
      "ive": 1128,
      "On": 1129,
      "Ġceux": 1130,
      "arg": 1131,
      "sible": 1132,
      "Åĵ": 1133,
      "ĠsiÃ¨": 1134,
      "Ġici": 1135,
      "Ġaur": 1136,
      "ouis": 1137,
      "Ġvu": 1138,
      "amp": 1139,
      "ĠVictor": 1140,
      "Vous": 1141,
      "era": 1142,
      "Ġvos": 1143,
      "esp": 1144,
      "plaine": 1145,
      "ĠÃ©cl": 1146,
      "moi": 1147,
      "pro": 1148,
      "wyn": 1149,
      "acc": 1150,
      "ivers": 1151,
      "apit": 1152,
      "quoi": 1153,
      "mi": 1154,
      "Ġciel": 1155,
      "Ã¨res": 1156,
      "Ġpeine": 1157,
      "wynplaine": 1158,
      "Ġcher": 1159,
      "fin": 1160,
      "amb": 1161,
      "Ġseul": 1162,
      "Ġmin": 1163,
      "Ġfaisait": 1164,
      "Ġouv": 1165,
      "pour": 1166,
      "ĠI": 1167,
      "ave": 1168,
      "endu": 1169,
      "Ġcomp": 1170,
      "erie": 1171,
      "Ġpays": 1172,
      "Ġsembl": 1173,
      "Ġpat": 1174,
      "erne": 1175,
      "elui": 1176,
      "Ġsour": 1177,
      "Ġbras": 1178,
      "Ġfille": 1179,
      "Ġprin": 1180,
      "lors": 1181,
      "Ġvoit": 1182,
      "Ġimm": 1183,
      "Ġconf": 1184,
      "aite": 1185,
      "Ġquoi": 1186,
      "od": 1187,
      "Ġpauv": 1188,
      "Ġsera": 1189,
      "Ġcond": 1190,
      "Ġtravers": 1191,
      "Ġmat": 1192,
      "Ġsouv": 1193,
      "Ġmil": 1194,
      "Ġsc": 1195,
      "Ġmer": 1196,
      "Ġlit": 1197,
      "ĠTout": 1198,
      "eff": 1199,
      "ines": 1200,
      "Ġsoci": 1201,
      "An": 1202,
      "ierre": 1203,
      "Ġpresque": 1204,
      "ience": 1205,
      "Ġlum": 1206,
      "ĠTh": 1207,
      "Ġmonsieur": 1208,
      "ĠdÃ©c": 1209,
      "Ã¯": 1210,
      "Ġcou": 1211,
      "Ġdern": 1212,
      "ĠIls": 1213,
      "ĊĠĠĠĠĠĠĠĠĠ": 1214,
      "Ġind": 1215,
      "Ġref": 1216,
      "ambre": 1217,
      "erm": 1218,
      "Ġnoir": 1219,
      "yant": 1220,
      "Ġlieu": 1221,
      "Ġinst": 1222,
      "Ġdepuis": 1223,
      "esprit": 1224,
      "Ġcert": 1225,
      "AN": 1226,
      "Ġjet": 1227,
      "ĠDE": 1228,
      "ĊĊĠĠĠĠĠĠĠĠĠĠĠĠĠĠĠĠ": 1229,
      "Ġfeu": 1230,
      "Ġph": 1231,
      "Ġrou": 1232,
      "tÃ©ri": 1233,
      "Ġquest": 1234,
      "Ġsang": 1235,
      "Ġbour": 1236,
      "ĠCosette": 1237,
      "ĠNous": 1238,
      "Ġautres": 1239,
      "Ġdix": 1240,
      "ys": 1241,
      "Ġcin": 1242,
      "RE": 1243,
      "Ġfle": 1244,
      "aÃ§": 1245,
      "Ġor": 1246,
      "ope": 1247,
      "roite": 1248,
      "ĠprÃ©": 1249,
      "Ġaujourd": 1250,
      "igneur": 1251,
      "Ġprofond": 1252,
      "nous": 1253,
      "Ġchoses": 1254,
      "Ã©tÃ©": 1255,
      "rer": 1256,
      "arr": 1257,
      "Ġrapp": 1258,
      "ĠUne": 1259,
      "Ġpremier": 1260,
      "Ġavez": 1261,
      "ĠtrÃ¨s": 1262,
      "Elle": 1263,
      "aus": 1264,
      "eaux": 1265,
      "ess": 1266,
      "Ġavaient": 1267,
      "istoire": 1268,
      "ouss": 1269,
      "ienne": 1270,
      "ordre": 1271,
      "Ġmaison": 1272,
      "con": 1273,
      "ph": 1274,
      "ĠPour": 1275,
      "Ġconn": 1276,
      "Ġnouv": 1277,
      "Ġgrands": 1278,
      "_)": 1279,
      "oles": 1280,
      "iere": 1281,
      "vant": 1282,
      "ĊĠĠĠĠĠĠĠĠĠĠĠĠĠĠĠĠ": 1283,
      "iez": 1284,
      "coup": 1285,
      "Ġesp": 1286,
      "Ġenv": 1287,
      "ener": 1288,
      "ĠrÃ©s": 1289,
      "arch": 1290,
      "ĠÃ©v": 1291,
      "Ġsil": 1292,
      "De": 1293,
      "Ġplace": 1294,
      "Ġfront": 1295,
      "enu": 1296,
      "ner": 1297,
      "Ġmille": 1298,
      "Ġcoeur": 1299,
      "ĠdÃ©t": 1300,
      "Ġgros": 1301,
      "ĠCette": 1302,
      "ger": 1303,
      "ume": 1304,
      "rez": 1305,
      "cs": 1306,
      "ĠdÃ©f": 1307,
      "ER": 1308,
      "ĠAu": 1309,
      "eures": 1310,
      "ĠmÃª": 1311,
      "ales": 1312,
      "Ġtrop": 1313,
      "Ġri": 1314,
      "aison": 1315,
      "ĠsiÃ¨cle": 1316,
      "ange": 1317,
      "oss": 1318,
      "ule": 1319,
      "Ġdemand": 1320,
      "Ġsorte": 1321,
      "Ġserait": 1322,
      "itude": 1323,
      "iles": 1324,
      "illard": 1325,
      "Ġju": 1326,
      "Ġcompr": 1327,
      "Ġcontin": 1328,
      "ĠSaint": 1329,
      "heur": 1330,
      "mpl": 1331,
      "sieurs": 1332,
      "br": 1333,
      "dessus": 1334,
      "ind": 1335,
      "aines": 1336,
      "Ġavant": 1337,
      "Ġprop": 1338,
      "iz": 1339,
      "urope": 1340,
      "Ġred": 1341,
      "Ġarriv": 1342,
      "Ġmains": 1343,
      "ouverne": 1344,
      "oud": 1345,
      "Ġvient": 1346,
      "ĠDans": 1347,
      "Ġcomb": 1348,
      "Ġpieds": 1349,
      "euse": 1350,
      "cha": 1351,
      "Ġchem": 1352,
      "ges": 1353,
      "Ġdist": 1354,
      "Ġcent": 1355,
      "Ġete": 1356,
      "Ġdisait": 1357,
      "nÃ©": 1358,
      "ĠrÃª": 1359,
      "Ġvit": 1360,
      "Ġhab": 1361,
      "pendant": 1362,
      "Ġsoir": 1363,
      "Ġjours": 1364,
      "antes": 1365,
      "uss": 1366,
      "Ġfont": 1367,
      "Ġchez": 1368,
      "Ġbruit": 1369,
      "Ġserv": 1370,
      "AR": 1371,
      "Ġid": 1372,
      "ende": 1373,
      "Ġguerre": 1374,
      "Ġnation": 1375,
      "Ġpetite": 1376,
      "aÃ®t": 1377,
      "semble": 1378,
      "Ġnu": 1379,
      "ĠLouis": 1380,
      "Ġsoi": 1381,
      "ath": 1382,
      "nent": 1383,
      "avoir": 1384,
      "va": 1385,
      "Ġenfants": 1386,
      "Ġbat": 1387,
      "Ġinc": 1388,
      "Ġins": 1389,
      "ote": 1390,
      "rible": 1391,
      "reux": 1392,
      "fait": 1393,
      "ible": 1394,
      "pas": 1395,
      "inte": 1396,
      "Ã§a": 1397,
      "min": 1398,
      "Ġciv": 1399,
      "Ã©ment": 1400,
      "eterre": 1401,
      "tice": 1402,
      "Ġrepr": 1403,
      "gleterre": 1404,
      "Ġeut": 1405,
      "Ġappar": 1406,
      "jÃł": 1407,
      "ĠQue": 1408,
      ":--": 1409,
      "issait": 1410,
      "enfant": 1411,
      "Ġdonne": 1412,
      "mon": 1413,
      "rais": 1414,
      "cep": 1415,
      "ĠW": 1416,
      "Ġcelui": 1417,
      "Ġconv": 1418,
      "rec": 1419,
      "ric": 1420,
      "Ġfam": 1421,
      "Ġray": 1422,
      "Ġassez": 1423,
      "Au": 1424,
      "Ġrel": 1425,
      "Ġmilieu": 1426,
      "cc": 1427,
      "Ġforce": 1428,
      "hor": 1429,
      "Ġag": 1430,
      "Ġcompl": 1431,
      "Par": 1432,
      "lus": 1433,
      "Ġ2": 1434,
      "Ġsait": 1435,
      "Ġchambre": 1436,
      "Ġentend": 1437,
      "Ġpersonne": 1438,
      "itÃ©s": 1439,
      "Ġret": 1440,
      "Ġpu": 1441,
      "ouvement": 1442,
      "chant": 1443,
      "Ġst": 1444,
      "temps": 1445,
      "ime": 1446,
      "chÃ©": 1447,
      "Ã®tre": 1448,
      "rant": 1449,
      "uv": 1450,
      "Ġdr": 1451,
      "Ġesprit": 1452,
      "Mais": 1453,
      "lles": 1454,
      "Ġveut": 1455,
      "...": 1456,
      "Ġtoi": 1457,
      "ilis": 1458,
      "Ġfoule": 1459,
      "Oui": 1460,
      "mbre": 1461,
      "Ġsac": 1462,
      "ident": 1463,
      "ber": 1464,
      "mir": 1465,
      "Pour": 1466,
      "tenant": 1467,
      "arte": 1468,
      "Ãªque": 1469,
      "aÃ®tre": 1470,
      "uer": 1471,
      "Ġsombre": 1472,
      "Ġcal": 1473,
      "aisse": 1474,
      "ĠÃī": 1475,
      "Ġpubl": 1476,
      "Ġmieux": 1477,
      "Ã©nard": 1478,
      "Ġeux": 1479,
      "Tout": 1480,
      "ĠÃªtes": 1481,
      "Ġautour": 1482,
      "ĠGwynplaine": 1483,
      "Ġenfant": 1484,
      "Ġinf": 1485,
      "son": 1486,
      "Ġsommes": 1487,
      "Ã©nardier": 1488,
      ",--": 1489,
      "Ġton": 1490,
      "Ġinter": 1491,
      "aff": 1492,
      "dire": 1493,
      "orme": 1494,
      "Ã¨te": 1495,
      "rÃ©e": 1496,
      "ast": 1497,
      "ute": 1498,
      "ĊĊĠ": 1499,
      "!--": 1500,
      "ĠmÃ¨re": 1501,
      "Ġpauvre": 1502,
      "hum": 1503,
      "Ġang": 1504,
      "OR": 1505,
      "itique": 1506,
      "Ġgauche": 1507,
      "Ġcouv": 1508,
      "Europe": 1509,
      "plus": 1510,
      "ĠOr": 1511,
      "hÃ©": 1512,
      "mÃ©": 1513,
      "Ġmor": 1514,
      "ah": 1515,
      "Ġparce": 1516,
      "Ġquestion": 1517,
      "ache": 1518,
      "range": 1519,
      "tÃ©r": 1520,
      "Ġgouverne": 1521,
      "Ġheures": 1522,
      "Ġvi": 1523,
      "Nous": 1524,
      "cons": 1525,
      "ends": 1526,
      "cip": 1527,
      "Ġnature": 1528,
      "Ã©taient": 1529,
      "Ġreprit": 1530,
      "rand": 1531,
      "ĠdÃ©jÃł": 1532,
      "gne": 1533,
      "histoire": 1534,
      "quelle": 1535,
      "roche": 1536,
      "Que": 1537,
      "oign": 1538,
      "Ġoff": 1539,
      "Une": 1540,
      "Ġfils": 1541,
      "Ġprod": 1542,
      "bour": 1543,
      "Ġpap": 1544,
      "ira": 1545,
      "Ġveux": 1546,
      "ps": 1547,
      "resse": 1548,
      "ĠpensÃ©e": 1549,
      "Ġdroite": 1550,
      "Ġloin": 1551,
      "oleil": 1552,
      "Ġreconn": 1553,
      "istre": 1554,
      "ome": 1555,
      "Ġsuff": 1556,
      "Ġvenait": 1557,
      "Ġvent": 1558,
      "ites": 1559,
      "UR": 1560,
      "Ġdoit": 1561,
      "Ġec": 1562,
      "ett": 1563,
      "ĠX": 1564,
      "Ġdoute": 1565,
      "Ġsauv": 1566,
      "._)": 1567,
      "Ġpal": 1568,
      "uy": 1569,
      "ĠderriÃ¨re": 1570,
      "lui": 1571,
      "oque": 1572,
      "vis": 1573,
      "Ã«": 1574,
      "Ġauc": 1575,
      "ult": 1576,
      "bles": 1577,
      "ront": 1578,
      "Ġbout": 1579,
      "Ġlivre": 1580,
      "Ġjou": 1581,
      "Ġpouvait": 1582,
      "Ġmeme": 1583,
      "nÃ©e": 1584,
      "Ġpen": 1585,
      "tel": 1586,
      "Ġrire": 1587,
      "ĠcrÃ©": 1588,
      "Ġvingt": 1589,
      "Ġfig": 1590,
      "Ġchaque": 1591,
      "Ġpasse": 1592,
      "ĠrÃ©pondit": 1593,
      "jout": 1594,
      "Ġsilence": 1595,
      "IC": 1596,
      "alitÃ©": 1597,
      "Ġlord": 1598,
      "Ġbonne": 1599,
      "ateur": 1600,
      "ef": 1601,
      "Ġmit": 1602,
      "dener": 1603,
      "anche": 1604,
      "Ġfrapp": 1605,
      "Ġchemin": 1606,
      "isme": 1607,
      "iter": 1608,
      "Ġno": 1609,
      "auteur": 1610,
      ".Â»": 1611,
      "Ġroy": 1612,
      "avenir": 1613,
      "_.)": 1614,
      "Ġface": 1615,
      "Ġpierre": 1616,
      "jet": 1617,
      "Ġparle": 1618,
      "ĠrÃ©vol": 1619,
      "bout": 1620,
      "comme": 1621,
      "ĊĊĠĠĠĠ": 1622,
      "Ġcinq": 1623,
      "vait": 1624,
      "Ġvois": 1625,
      "Ġetait": 1626,
      "ardin": 1627,
      "Dans": 1628,
      "ĠfaÃ§": 1629,
      "ĠSi": 1630,
      "encont": 1631,
      "Ġeffet": 1632,
      "Cette": 1633,
      "rat": 1634,
      "Ġpuiss": 1635,
      "veill": 1636,
      "Ġjustice": 1637,
      "sous": 1638,
      "Ġgens": 1639,
      "Ġdevoir": 1640,
      "iÃ¨res": 1641,
      "th": 1642,
      "Ġren": 1643,
      "cette": 1644,
      "rsus": 1645,
      "Ġbois": 1646,
      "Ġru": 1647,
      "Ġdiff": 1648,
      "pri": 1649,
      "oux": 1650,
      "Ġfat": 1651,
      "part": 1652,
      "ige": 1653,
      "oyen": 1654,
      "ĠChar": 1655,
      "onneur": 1656,
      "ĠvoilÃł": 1657,
      "avert": 1658,
      "inst": 1659,
      "Ġem": 1660,
      "Angleterre": 1661,
      "Ġvag": 1662,
      "avez": 1663,
      "Ã¢ce": 1664,
      "Ġappel": 1665,
      "ĠlumiÃ¨re": 1666,
      "Ġsoleil": 1667,
      "Ġcer": 1668,
      "Ġvas": 1669,
      "rier": 1670,
      "Ġbes": 1671,
      "Ġfemmes": 1672,
      "arqu": 1673,
      "ĠQui": 1674,
      "Ġcrois": 1675,
      "Ġtable": 1676,
      "Ġliberte": 1677,
      "ibre": 1678,
      "sol": 1679,
      "ĠCes": 1680,
      "amour": 1681,
      "oubl": 1682,
      "onap": 1683,
      "eil": 1684,
      "Ġpendant": 1685,
      "Ã¨ne": 1686,
      "ct": 1687,
      "Ġsix": 1688,
      "uil": 1689,
      "yr": 1690,
      "Ġavons": 1691,
      "gle": 1692,
      "ĠMont": 1693,
      "ereur": 1694,
      "Ġquelle": 1695,
      "ilisation": 1696,
      "Ġpai": 1697,
      "Ġta": 1698,
      "Ġconsc": 1699,
      "Ġsold": 1700,
      "Ġdest": 1701,
      "inter": 1702,
      "Ġjeunes": 1703,
      "Ġparler": 1704,
      "ĠÃ¢me": 1705,
      "enez": 1706,
      "etre": 1707,
      "onte": 1708,
      "Ġsub": 1709,
      "III": 1710,
      "EN": 1711,
      "Ãªtres": 1712,
      "ĠÃ¢": 1713,
      "Ġpre": 1714,
      "Ġpense": 1715,
      "Ġconc": 1716,
      "autres": 1717,
      "Ġraison": 1718,
      "ĠgÃ©nÃ©r": 1719,
      "cal": 1720,
      "Ġsonge": 1721,
      "Ġcelle": 1722,
      "Ġfen": 1723,
      "Ã¨ve": 1724,
      "ainte": 1725,
      "ouill": 1726,
      "Ġmatin": 1727,
      "sent": 1728,
      "Ġparole": 1729,
      "uite": 1730,
      "Ġvieillard": 1731,
      "onaparte": 1732,
      "Ġbal": 1733,
      "ĠÃ©g": 1734,
      "Ġtombe": 1735,
      "Ġflot": 1736,
      "Ġvieille": 1737,
      "ĠpassÃ©": 1738,
      "scur": 1739,
      "ĠThÃ©nardier": 1740,
      "Ġjoie": 1741,
      "avec": 1742,
      "ieuse": 1743,
      "ru": 1744,
      "iment": 1745,
      "Ġcroy": 1746,
      "Ġvert": 1747,
      "ust": 1748,
      "Ġconst": 1749,
      "Ġdonner": 1750,
      "voir": 1751,
      "Ġfroi": 1752,
      "af": 1753,
      "ĠdÃ©p": 1754,
      "issant": 1755,
      "ablement": 1756,
      "Ġvoyait": 1757,
      "Ah": 1758,
      "Ġcach": 1759,
      "ettes": 1760,
      "chait": 1761,
      "Quand": 1762,
      "Ġparoles": 1763,
      "Ġsemble": 1764,
      "Ġlar": 1765,
      "Ġtrans": 1766,
      "clam": 1767,
      "ades": 1768,
      "Ġdispar": 1769,
      "Ġmaintenant": 1770,
      "ĊĠĠĠĠĠĠĠ": 1771,
      "erce": 1772,
      "anger": 1773,
      "Ġhaute": 1774,
      "mÃ©e": 1775,
      "sp": 1776,
      "Ġayant": 1777,
      "llig": 1778,
      "oÃ¹": 1779,
      "chev": 1780,
      "ĠpremiÃ¨re": 1781,
      "Ġsemblait": 1782,
      "iff": 1783,
      "Ġlettre": 1784,
      "Ġvain": 1785,
      "Ġbelle": 1786,
      "Ã©cri": 1787,
      "ane": 1788,
      "istes": 1789,
      "sembl": 1790,
      "Ã¨bres": 1791,
      "Ġsens": 1792,
      "Ġconse": 1793,
      "Ġdesc": 1794,
      "mple": 1795,
      "na": 1796,
      "ĠlÃ©g": 1797,
      "Ġlaquelle": 1798,
      "ĠQuand": 1799,
      "Ġmour": 1800,
      "Ġhumaine": 1801,
      "ĠmaÃ®tre": 1802,
      "Ġallait": 1803,
      "ailleurs": 1804,
      "DON": 1805,
      "Ġlut": 1806,
      "ĠRh": 1807,
      "oix": 1808,
      "Ġcheval": 1809,
      "SI": 1810,
      "Ġhor": 1811,
      "irent": 1812,
      "endait": 1813,
      "Ġseulement": 1814,
      "Ġpetits": 1815,
      "ĠmÃªl": 1816,
      "hommes": 1817,
      "Ġmons": 1818,
      "Ġtrem": 1819,
      "Ġparmi": 1820,
      "Ġalors": 1821,
      "hors": 1822,
      "ĠÃĢ": 1823,
      "Ġcas": 1824,
      "enne": 1825,
      "Ġgarde": 1826,
      "Ġprom": 1827,
      "mis": 1828,
      "Ġmois": 1829,
      "teurs": 1830,
      "Ã¨ce": 1831,
      "ĠQuel": 1832,
      "leur": 1833,
      "euvre": 1834,
      "Ġrencont": 1835,
      "plaud": 1836,
      "Si": 1837,
      "Ġchap": 1838,
      "ĠÃ©ch": 1839,
      "onnes": 1840,
      "Ã¢te": 1841,
      "Ġelles": 1842,
      "ousse": 1843,
      "Ġtrib": 1844,
      "bar": 1845,
      "Ġgard": 1846,
      "ĊĊĠĠĠĠĠĠĠĠ": 1847,
      "aissait": 1848,
      "Ġvisage": 1849,
      "Ġcorps": 1850,
      "hab": 1851,
      "Ġfrancs": 1852,
      "off": 1853,
      "ann": 1854,
      "Ġmauv": 1855,
      "Ġfai": 1856,
      "Ġpeuples": 1857,
      "Ġhumain": 1858,
      "ĠfÃ»t": 1859,
      "uste": 1860,
      "ĠGr": 1861,
      "issements": 1862,
      "Ġpolitique": 1863,
      "cin": 1864,
      "ME": 1865,
      "Ġsign": 1866,
      "ilos": 1867,
      "Ġduc": 1868,
      "dit": 1869,
      "Ġseigneur": 1870,
      "ĠDes": 1871,
      "Ġpouvoir": 1872,
      "ilosop": 1873,
      "dÃ©": 1874,
      "oilÃł": 1875,
      "Ġcau": 1876,
      "olÃ©": 1877,
      "olog": 1878,
      "onge": 1879,
      "ĠtÃ©n": 1880,
      "rage": 1881,
      "abl": 1882,
      "magne": 1883,
      "Ġfix": 1884,
      "rir": 1885,
      "iennent": 1886,
      "ĠdÃ©l": 1887,
      "Ġsalle": 1888,
      "cont": 1889,
      "ĠÃ©l": 1890,
      "Ġdemi": 1891,
      "aÃ¯": 1892,
      "oqu": 1893,
      "appel": 1894,
      "pris": 1895,
      "ances": 1896,
      "Ġplein": 1897,
      "dis": 1898,
      "Ã¢tre": 1899,
      "ĠAn": 1900,
      "Ġbeaucoup": 1901,
      "apitre": 1902,
      "Ġcondam": 1903,
      "vers": 1904,
      "Ġdiv": 1905,
      "Ġcan": 1906,
      "Ġdemande": 1907,
      "UG": 1908,
      "Ġfaite": 1909,
      "oulez": 1910,
      "Ġcrime": 1911,
      "ili": 1912,
      "eul": 1913,
      "Ã¨me": 1914,
      "Ġchant": 1915,
      "Ġpourtant": 1916,
      "assem": 1917,
      "Ġdernier": 1918,
      "Ġgal": 1919,
      "Ġclo": 1920,
      "Ġmots": 1921,
      "TOR": 1922,
      "ĠCela": 1923,
      "Ġprendre": 1924,
      "ĠdÃ©m": 1925,
      "....": 1926,
      "ailles": 1927,
      "aign": 1928,
      "ĠprÃ©sent": 1929,
      "per": 1930,
      "tions": 1931,
      "Ġetre": 1932,
      "irait": 1933,
      "Qui": 1934,
      "Ġlu": 1935,
      "erait": 1936,
      "Ġajout": 1937,
      "bourg": 1938,
      "ention": 1939,
      "rig": 1940,
      "ray": 1941,
      "Ġform": 1942,
      "OU": 1943,
      "ences": 1944,
      "oupe": 1945,
      "Ġcivilisation": 1946,
      "Ġgouvernement": 1947,
      "ĊĠĠĠĠ": 1948,
      "ĠBonaparte": 1949,
      "appelle": 1950,
      "Jean": 1951,
      "Ġconscience": 1952,
      "Ġdebout": 1953,
      "erÃ§": 1954,
      "irer": 1955,
      "Ġsin": 1956,
      "ĠHUG": 1957,
      "Ġmaj": 1958,
      "ĠHUGO": 1959,
      "Ġchef": 1960,
      "ĠdÃ©v": 1961,
      "Ã©ritÃ©": 1962,
      "Ġdisc": 1963,
      "der": 1964,
      "rÃ©s": 1965,
      "Ġprit": 1966,
      "Ġforme": 1967,
      "Ġpublic": 1968,
      "Ġbesoin": 1969,
      "Ġcontinu": 1970,
      "abord": 1971,
      "ICTOR": 1972,
      "Ġcre": 1973,
      "erbe": 1974,
      "ĠgrÃ¢ce": 1975,
      "Ġrom": 1976,
      "Ġceci": 1977,
      "ich": 1978,
      "port": 1979,
      "Ġtravail": 1980,
      "ĠRhin": 1981,
      "com": 1982,
      "deux": 1983,
      "fl": 1984,
      "adame": 1985,
      "Ġmas": 1986,
      "Ġtran": 1987,
      "olution": 1988,
      "Ġpasser": 1989,
      "Ġpaix": 1990,
      "allait": 1991,
      "Ar": 1992,
      "TE": 1993,
      "Ġpossible": 1994,
      "ĠfranÃ§": 1995,
      "Mes": 1996,
      "uf": 1997,
      "asard": 1998,
      "Ġretour": 1999,
      "ĠlibertÃ©": 2000,
      "Ġcad": 2001,
      "ĠMar": 2002,
      "Puis": 2003,
      "ma": 2004,
      "reau": 2005,
      "ression": 2006,
      "vi": 2007,
      "Ġsaint": 2008,
      "ack": 2009,
      "Ġfaits": 2010,
      "Ġtel": 2011,
      "once": 2012,
      "usque": 2013,
      "ĠPr": 2014,
      "Quel": 2015,
      "Ġquit": 2016,
      "let": 2017,
      "Ġlang": 2018,
      "pliqu": 2019,
      "Ã©cl": 2020,
      "Ġimmense": 2021,
      "Ġrelig": 2022,
      "esse": 2023,
      "Ġcit": 2024,
      "Ġdehors": 2025,
      "Ġ--": 2026,
      "ĠĠĠĠĠĠ": 2027,
      "agnif": 2028,
      "tement": 2029,
      "Ġfou": 2030,
      "Ġpourquoi": 2031,
      "Ġop": 2032,
      "Ġcomte": 2033,
      "sa": 2034,
      "ven": 2035,
      "Ġmeur": 2036,
      "Ġunivers": 2037,
      "honneur": 2038,
      "Ġfac": 2039,
      "Ã©tais": 2040,
      "ices": 2041,
      "opul": 2042,
      "Ġbord": 2043,
      "Ġrempl": 2044,
      "Ġseule": 2045,
      "Chapitre": 2046,
      "Eh": 2047,
      "ple": 2048,
      "ieurs": 2049,
      "Ġvue": 2050,
      "issent": 2051,
      "uve": 2052,
      "acle": 2053,
      "ignor": 2054,
      "LO": 2055,
      "elon": 2056,
      "Ġtrou": 2057,
      "Ġart": 2058,
      "Ġblanc": 2059,
      "Ġviol": 2060,
      "ry": 2061,
      "iant": 2062,
      "quet": 2063,
      "Ġtort": 2064,
      "urent": 2065,
      "oyez": 2066,
      "occ": 2067,
      "Ġbarric": 2068,
      "ĠgÃ©nÃ©ral": 2069,
      "Non": 2070,
      "Ġcur": 2071,
      "Ils": 2072,
      "ĠRome": 2073,
      "ouleur": 2074,
      "Ġcommence": 2075,
      "vÃ©": 2076,
      "rale": 2077,
      "Ã©vÃªque": 2078,
      "Ġprofonde": 2079,
      "oeil": 2080,
      "acun": 2081,
      "Ġocc": 2082,
      "Ã©rable": 2083,
      "pres": 2084,
      "Ġir": 2085,
      "Ġpav": 2086,
      "Ġbut": 2087,
      "oyens": 2088,
      "Ġvoici": 2089,
      "Ġ*": 2090,
      "este": 2091,
      "Ġprosc": 2092,
      "Ã©gl": 2093,
      "Ġcharm": 2094,
      "Ġphilosop": 2095,
      "Ġdestin": 2096,
      "Ġdom": 2097,
      "Ġmouvement": 2098,
      "Ġmarche": 2099,
      "di": 2100,
      "Ġsou": 2101,
      "avais": 2102,
      "Ġmari": 2103,
      "vie": 2104,
      "Ġlors": 2105,
      "Ġpoin": 2106,
      "Ġcab": 2107,
      "dem": 2108,
      "iend": 2109,
      "icul": 2110,
      "ueil": 2111,
      "Ġcap": 2112,
      "rib": 2113,
      "Ġhasard": 2114,
      "Ġcomment": 2115,
      "ĠOrdener": 2116,
      "Ġfigure": 2117,
      "Ġlibre": 2118,
      "Ġgloire": 2119,
      "argent": 2120,
      "ĊĊĠĠĠĠĠĠĠĠĠĠĠĠĠĠĠĠĠĠĠĠĠĠĠĠ": 2121,
      "car": 2122,
      "lit": 2123,
      "Ġpron": 2124,
      "onner": 2125,
      "empereur": 2126,
      "ĠNe": 2127,
      "opin": 2128,
      "Ġdoux": 2129,
      "Ġcents": 2130,
      "Ġfour": 2131,
      "Ġtard": 2132,
      "Ġvenu": 2133,
      "Ġbonheur": 2134,
      "Ġsouvent": 2135,
      "Ġcapit": 2136,
      "Ġfaites": 2137,
      "Ġgrandes": 2138,
      "Ġpont": 2139,
      "alement": 2140,
      "rette": 2141,
      "Ġimpos": 2142,
      "Mon": 2143,
      "ĠAh": 2144,
      "Ġbouche": 2145,
      "OI": 2146,
      "ĠK": 2147,
      "ouche": 2148,
      "Ġfaute": 2149,
      "omment": 2150,
      "rive": 2151,
      "Ã©sent": 2152,
      "ĠprÃ©c": 2153,
      "Ġaurait": 2154,
      "ĠComme": 2155,
      "Ġnouveau": 2156,
      "RI": 2157,
      "ises": 2158,
      "alle": 2159,
      "ĠJavert": 2160,
      "Ġterrible": 2161,
      "Ġann": 2162,
      "Ġperd": 2163,
      "empire": 2164,
      "Ġfamille": 2165,
      "Marius": 2166,
      "pir": 2167,
      "tal": 2168,
      "ĠpÃ©n": 2169,
      "Ġpare": 2170,
      "Ġro": 2171,
      "ĠTu": 2172,
      "Ġpartout": 2173,
      "Ġfus": 2174,
      "elop": 2175,
      "Ġble": 2176,
      "ĊĊĠĠĠ": 2177,
      "ĠNon": 2178,
      "Ġadmir": 2179,
      "Ġvague": 2180,
      "char": 2181,
      "onnÃ©": 2182,
      "Ġprend": 2183,
      "Ã§ait": 2184,
      "Ġair": 2185,
      "Or": 2186,
      "inf": 2187,
      "ĠSe": 2188,
      "Ġtelle": 2189,
      "Ġpleine": 2190,
      "Ġfroid": 2191,
      "Ġanc": 2192,
      "Ġvais": 2193,
      "eÃ»t": 2194,
      "anou": 2195,
      "Ã¢le": 2196,
      "Monsieur": 2197,
      "action": 2198,
      "NE": 2199,
      "comm": 2200,
      "gu": 2201,
      "Ġregarde": 2202,
      "Ġhabit": 2203,
      "az": 2204,
      "oÃ»t": 2205,
      "ĠÃ´": 2206,
      "Ġlois": 2207,
      "Ã©tat": 2208,
      "Ġrepublique": 2209,
      "(_": 2210,
      "OL": 2211,
      "avant": 2212,
      "endit": 2213,
      "Ġcommun": 2214,
      "ystÃ©ri": 2215,
      "Ġnoble": 2216,
      "ĠLE": 2217,
      "Ġpropos": 2218,
      "Ġlongtemps": 2219,
      "Ġtriomp": 2220,
      "Ġangl": 2221,
      "gÃ©": 2222,
      "enn": 2223,
      "aie": 2224,
      "reur": 2225,
      "oires": 2226,
      "utions": 2227,
      "cid": 2228,
      "ĠdonnÃ©": 2229,
      "Ġdouce": 2230,
      "Ġremarqu": 2231,
      "Ġdoi": 2232,
      "Ġpeur": 2233,
      "Ġparti": 2234,
      "Åĵur": 2235,
      "Ġal": 2236,
      "Ġjuge": 2237,
      "cour": 2238,
      "yst": 2239,
      "sif": 2240,
      "Ġoui": 2241,
      "Ġjourn": 2242,
      "Comme": 2243,
      "gent": 2244,
      "hes": 2245,
      "ĠÃ§a": 2246,
      "Ġoubl": 2247,
      "asses": 2248,
      "Ġgrav": 2249,
      "Ġmen": 2250,
      "Ġmai": 2251,
      "Ġhors": 2252,
      "ĠBar": 2253,
      "Ġsortir": 2254,
      "Ġpri": 2255,
      "Ġvoulez": 2256,
      "Ġprov": 2257,
      "cess": 2258,
      "Ġinstant": 2259,
      "aul": 2260,
      "Ġjug": 2261,
      "Ġjardin": 2262,
      "ulte": 2263,
      "ĠNap": 2264,
      "ia": 2265,
      "reg": 2266,
      "Ġfant": 2267,
      "Ãªle": 2268,
      "Ġsept": 2269,
      "ards": 2270,
      "Ġquelqu": 2271,
      "ignes": 2272,
      "IV": 2273,
      "peu": 2274,
      "romp": 2275,
      "Ġ[": 2276,
      "etait": 2277,
      "Ġgar": 2278,
      "amin": 2279,
      "ĠEst": 2280,
      "Ġtriste": 2281,
      "geois": 2282,
      "ots": 2283,
      "Ġconsid": 2284,
      "Ġgenre": 2285,
      "aime": 2286,
      "heureux": 2287,
      "Ġheureux": 2288,
      "ĠfaÃ§on": 2289,
      "Ġrois": 2290,
      "ĠÃ©n": 2291,
      "ombres": 2292,
      "Ġconte": 2293,
      "Ġlequel": 2294,
      "mont": 2295,
      "ron": 2296,
      "vit": 2297,
      "avroche": 2298,
      "Ġperm": 2299,
      "Ã©las": 2300,
      "Ġfleurs": 2301,
      "cre": 2302,
      "Ġvoud": 2303,
      "uire": 2304,
      "arrÃªt": 2305,
      "ĠtÃ©nÃ¨bres": 2306,
      "mais": 2307,
      "asion": 2308,
      "uses": 2309,
      "plend": 2310,
      "onnement": 2311,
      "Ġcause": 2312,
      "Ġmoyen": 2313,
      "avons": 2314,
      "rÃ©m": 2315,
      "Ġait": 2316,
      "Ã©ro": 2317,
      "Ġmet": 2318,
      "ĠthÃ©": 2319,
      "ĠÃ©trange": 2320,
      "ĠrÃ©volution": 2321,
      "Ã©cria": 2322,
      "Ã©glise": 2323,
      "main": 2324,
      "voy": 2325,
      "Ġroute": 2326,
      "Ġtromp": 2327,
      "ugu": 2328,
      "ouverte": 2329,
      "Ġmessieurs": 2330,
      "AU": 2331,
      "raient": 2332,
      "entes": 2333,
      "Ġnoire": 2334,
      "Ġcru": 2335,
      "ĊĠĠĠĠĠĠĠĠĠĠĠĠĠĠĠ": 2336,
      "Ġtranqu": 2337,
      "Ġsoup": 2338,
      "levent": 2339,
      "avaient": 2340,
      "ives": 2341,
      "ĠSa": 2342,
      "Ġcria": 2343,
      "Ġappelle": 2344,
      "Ġcombat": 2345,
      "Ã©ant": 2346,
      "Ġsout": 2347,
      "Ġretr": 2348,
      "ĠÃ©m": 2349,
      "act": 2350,
      "ĊĠĠĠĠĠ": 2351,
      "ĠCl": 2352,
      "aces": 2353,
      "ivre": 2354,
      "Ġarr": 2355,
      "Ġpartie": 2356,
      "emple": 2357,
      "Ġvolont": 2358,
      "Ġinte": 2359,
      "ides": 2360,
      "ission": 2361,
      "ormand": 2362,
      "Ġpropre": 2363,
      "olÃ©on": 2364,
      "grand": 2365,
      "quis": 2366,
      "cembre": 2367,
      "leine": 2368,
      "Ġrob": 2369,
      "Ġcoll": 2370,
      "ĊĠĠĠĠĠĠĠĠĠĠĠĠĠĠĠĠĠĠĠ": 2371,
      "Ġspect": 2372,
      "Ġrouge": 2373,
      "Ġdrap": 2374,
      "ĠpiÃ¨": 2375,
      "rÃ©p": 2376,
      "izon": 2377,
      "ves": 2378,
      "Ġsitu": 2379,
      "Ġcoin": 2380,
      "Ġpresse": 2381,
      "Ġlet": 2382,
      "Ġsomme": 2383,
      "ĠmÃ©": 2384,
      "ĠÃ©le": 2385,
      "Ġcheveux": 2386,
      "mait": 2387,
      "pre": 2388,
      "Ġmagnif": 2389,
      "Ã©cess": 2390,
      "ingul": 2391,
      "Ġcoups": 2392,
      "Ġcav": 2393,
      "auchelevent": 2394,
      "rup": 2395,
      "vres": 2396,
      "Ġpopul": 2397,
      "olie": 2398,
      "Ġaller": 2399,
      "adeleine": 2400,
      "Ġpit": 2401,
      "ĠSon": 2402,
      "Ġenfin": 2403,
      "ĠpoÃ«": 2404,
      "plaudissements": 2405,
      "Alle": 2406,
      "Ġalle": 2407,
      "Ġfau": 2408,
      "oll": 2409,
      "Ġsimple": 2410,
      "Ġrespect": 2411,
      "ĠÃ©clat": 2412,
      "Ġcadav": 2413,
      "CH": 2414,
      "Ces": 2415,
      "oh": 2416,
      "ument": 2417,
      "Ġim": 2418,
      "Ġmill": 2419,
      "ila": 2420,
      "Ġram": 2421,
      "olt": 2422,
      "adis": 2423,
      "jour": 2424,
      "mment": 2425,
      "artÃ©": 2426,
      "inÃ©": 2427,
      "oici": 2428,
      "Ġmorts": 2429,
      "Ġaucun": 2430,
      "Oh": 2431,
      "Ġhuit": 2432,
      "uir": 2433,
      "Ġsuite": 2434,
      "Ġsourire": 2435,
      "AI": 2436,
      "Ġvont": 2437,
      "ĠPuis": 2438,
      "ĠSur": 2439,
      "DE": 2440,
      "Tu": 2441,
      "Ġmettre": 2442,
      "dev": 2443,
      "illon": 2444,
      "Ġjuste": 2445,
      "LET": 2446,
      "Ġtrembl": 2447,
      "Ġmauvais": 2448,
      "Est": 2449,
      "ub": 2450,
      "Ġpouss": 2451,
      "Ġsie": 2452,
      "Ġspec": 2453,
      "Ġselon": 2454,
      "erse": 2455,
      "etÃ©": 2456,
      "Ġtal": 2457,
      "ĠbÃ¢t": 2458,
      "Ġint": 2459,
      "ĠdÃ©b": 2460,
      "veille": 2461,
      "Ġexp": 2462,
      "Ġmurm": 2463,
      "Ġsavoir": 2464,
      "Messieurs": 2465,
      "!_)": 2466,
      "toi": 2467,
      "itions": 2468,
      "ication": 2469,
      "onnu": 2470,
      "ĠÃ©crit": 2471,
      "Ġvenir": 2472,
      "Ġlettres": 2473,
      "cri": 2474,
      "rÃ¨s": 2475,
      "Ġve": 2476,
      "Ġhid": 2477,
      "Ġquelquefois": 2478,
      "grÃ¨s": 2479,
      "Ġfum": 2480,
      "Ġpourrait": 2481,
      "ĠRien": 2482,
      "Ġess": 2483,
      "ode": 2484,
      "Ġmonarch": 2485,
      "Ġflam": 2486,
      "Ġsentait": 2487,
      "ĠDea": 2488,
      "ĠCharles": 2489,
      "DO": 2490,
      "gres": 2491,
      "pÃ©": 2492,
      "org": 2493,
      "_).": 2494,
      "oltaire": 2495,
      "sui": 2496,
      "Ġine": 2497,
      "Ġlaisse": 2498,
      "Ġsouver": 2499,
      "Ġdef": 2500,
      "itution": 2501,
      "ĠMon": 2502,
      "Ġvoulu": 2503,
      "Ġredout": 2504,
      "bas": 2505,
      "ler": 2506,
      "Ġquin": 2507,
      "ĠCar": 2508,
      "Ġplu": 2509,
      "Ġbrusque": 2510,
      "Ġtemp": 2511,
      "Ġcote": 2512,
      "Paris": 2513,
      "?--": 2514,
      "jol": 2515,
      "ris": 2516,
      "Â».": 2517,
      "Ġbarricade": 2518,
      "Ġproscrit": 2519,
      "insi": 2520,
      "Ġsouvenir": 2521,
      "erc": 2522,
      "entement": 2523,
      "usc": 2524,
      "aissez": 2525,
      "Ġend": 2526,
      "Ġmourir": 2527,
      "ouse": 2528,
      "Ġillus": 2529,
      "Â»,": 2530,
      "Ġcourt": 2531,
      "Ġsavez": 2532,
      "fond": 2533,
      "lo": 2534,
      "noc": 2535,
      "rav": 2536,
      "lef": 2537,
      "Ġnombre": 2538,
      "uiss": 2539,
      "ancel": 2540,
      "spagne": 2541,
      "fe": 2542,
      "oure": 2543,
      "usement": 2544,
      "ĠUrsus": 2545,
      "Ġprison": 2546,
      "ĠprÃ©sident": 2547,
      "ĠsociÃ©tÃ©": 2548,
      "human": 2549,
      "Ġpalais": 2550,
      "Gwynplaine": 2551,
      "mar": 2552,
      "phe": 2553,
      "ompl": 2554,
      "rot": 2555,
      "ĠAr": 2556,
      "Ġdiable": 2557,
      "aintenant": 2558,
      "bÃ©": 2559,
      "Ġflamb": 2560,
      "Ġaura": 2561,
      "ĊĠĠĠĠĠĠĠĠĠĠĠĠĠĠĠĠĠĠĠĠĠĠĠ": 2562,
      "ĠespÃ¨ce": 2563,
      "assemble": 2564,
      "ĠÃ©tant": 2565,
      "trav": 2566,
      "Ġpolice": 2567,
      "huit": 2568,
      "merc": 2569,
      "ele": 2570,
      "jus": 2571,
      "ĠII": 2572,
      "Ġlog": 2573,
      "Ġrend": 2574,
      "Ġplut": 2575,
      "Ġplusieurs": 2576,
      "Ġamis": 2577,
      "Cependant": 2578,
      "Ġtrouve": 2579,
      "Ġtribune": 2580,
      "ilitÃ©": 2581,
      "itaire": 2582,
      "orable": 2583,
      "rique": 2584,
      "Ġcalme": 2585,
      "AL": 2586,
      "Du": 2587,
      "OÃ¹": 2588,
      "ene": 2589,
      "ĠmystÃ©ri": 2590,
      "Ã§on": 2591,
      "Ġfaisant": 2592,
      "Ġvoyag": 2593,
      "Ġpatrie": 2594,
      "Ġsoldats": 2595,
      "Ġpublique": 2596,
      "Ġstu": 2597,
      "Ġviens": 2598,
      "ĠMadeleine": 2599,
      "ĠEh": 2600,
      "asser": 2601,
      "As": 2602,
      "Ġsat": 2603,
      "osse": 2604,
      "ĠVICTOR": 2605,
      "Ġregarda": 2606,
      "berg": 2607,
      "bien": 2608,
      "Ġboule": 2609,
      "Ġapres": 2610,
      "tÃ©rieur": 2611,
      "Ġmorte": 2612,
      "Ġfallait": 2613,
      "urÃ©": 2614,
      "oci": 2615,
      "ĠvÃ©ritÃ©": 2616,
      "inaire": 2617,
      "uine": 2618,
      "ranger": 2619,
      "ouve": 2620,
      "ĠDu": 2621,
      "Ġprob": 2622,
      "Ġgrave": 2623,
      "Ġperdu": 2624,
      "Ġlangue": 2625,
      "Ġmag": 2626,
      "Ġnav": 2627,
      "ĠPas": 2628,
      "Ġproc": 2629,
      "illet": 2630,
      "Ġbataille": 2631,
      "intellig": 2632,
      "EUR": 2633,
      "etit": 2634,
      "Ġnations": 2635,
      "Ġbasse": 2636,
      "Ã¨ge": 2637,
      "blou": 2638,
      "urer": 2639,
      "Ã©rit": 2640,
      "Ġpassant": 2641,
      "talie": 2642,
      "tÃ©s": 2643,
      "Ġhaine": 2644,
      "Ġtrente": 2645,
      "ĠTous": 2646,
      "Ġtourn": 2647,
      "Ġsangl": 2648,
      "Ġois": 2649,
      "Ġlugu": 2650,
      "arme": 2651,
      "arante": 2652,
      "idi": 2653,
      "idence": 2654,
      "raÃ®": 2655,
      "Ġexc": 2656,
      "ĠfenÃªtre": 2657,
      ".]": 2658,
      "In": 2659,
      "Ġdress": 2660,
      "onie": 2661,
      "Ġsab": 2662,
      "Ġsavait": 2663,
      "Ġfoi": 2664,
      "Ġtoit": 2665,
      "icier": 2666,
      "ĠSch": 2667,
      "ĠOh": 2668,
      "aissance": 2669,
      "Ġfranc": 2670,
      "Ġdisting": 2671,
      "jolras": 2672,
      "hÃ´": 2673,
      "lat": 2674,
      "pers": 2675,
      "chers": 2676,
      "Ġdouble": 2677,
      "Ġaucune": 2678,
      "iser": 2679,
      "Ġmaisons": 2680,
      "ocrat": 2681,
      "Ġdemanda": 2682,
      "fr": 2683,
      "rist": 2684,
      "Ġdos": 2685,
      "Ġsau": 2686,
      "ellement": 2687,
      "appar": 2688,
      "ĠdÃ©ch": 2689,
      "Ġcommenc": 2690,
      "Ġassis": 2691,
      "Ġstat": 2692,
      "UE": 2693,
      "oche": 2694,
      "oue": 2695,
      "ĠsÃ»": 2696,
      "eusement": 2697,
      "Ġfar": 2698,
      "Ġthe": 2699,
      "Ġrac": 2700,
      "ĠLA": 2701,
      "ouvre": 2702,
      "iller": 2703,
      "tif": 2704,
      "Ġtomber": 2705,
      "Ġprince": 2706,
      "Ġvaste": 2707,
      "Saint": 2708,
      "cles": 2709,
      "faite": 2710,
      "oeuvre": 2711,
      "tou": 2712,
      "Ġcath": 2713,
      "ymp": 2714,
      "ĠGill": 2715,
      "tile": 2716,
      "exp": 2717,
      "obscur": 2718,
      "ĠÃ©clair": 2719,
      "ENT": 2720,
      "Ġdoc": 2721,
      "Ġquart": 2722,
      "ĠdÃ©g": 2723,
      "quels": 2724,
      "Ġblan": 2725,
      "Ġpauvres": 2726,
      "Ġbourgeois": 2727,
      "ERN": 2728,
      "ĠidÃ©e": 2729,
      "Ġformid": 2730,
      "Ġami": 2731,
      "Ġtombeau": 2732,
      "Ġsecond": 2733,
      "Cosette": 2734,
      "Ġbanc": 2735,
      "Ġsurtout": 2736,
      "ĠBl": 2737,
      "Ã®me": 2738,
      "assemblee": 2739,
      "Ursus": 2740,
      "gre": 2741,
      "Ġpoign": 2742,
      "ĠbÃªte": 2743,
      "illage": 2744,
      "ateurs": 2745,
      "Ã¢teau": 2746,
      "ologne": 2747,
      "Ġos": 2748,
      "Ġdec": 2749,
      "idÃ©e": 2750,
      "outez": 2751,
      "ĠaperÃ§": 2752,
      "ĠgÃ©nie": 2753,
      "Ġbourreau": 2754,
      "horizon": 2755,
      "Ġant": 2756,
      "Ġombre": 2757,
      "Ġpain": 2758,
      "Ġfun": 2759,
      "inct": 2760,
      "Des": 2761,
      "Se": 2762,
      "oudre": 2763,
      "orde": 2764,
      "Ġchacun": 2765,
      "Ġtrouver": 2766,
      "ĠrÃ©g": 2767,
      "ĠBr": 2768,
      "ĠOui": 2769,
      "oyer": 2770,
      "Ġobsc": 2771,
      "Ġfini": 2772,
      "Ġouvert": 2773,
      "Ġcompte": 2774,
      "ĠidÃ©es": 2775,
      "Ġmajest": 2776,
      "fais": 2777,
      "pit": 2778,
      "enormand": 2779,
      "Ġcroit": 2780,
      "quer": 2781,
      "Ġbran": 2782,
      "assÃ©": 2783,
      "Ġesprits": 2784,
      "acker": 2785,
      "gt": 2786,
      "ĠsÃ©": 2787,
      "Ġcro": 2788,
      "ĠFran": 2789,
      "Ġcontr": 2790,
      "importe": 2791,
      "!Â»": 2792,
      "uait": 2793,
      "Ġsigne": 2794,
      "Ġmadame": 2795,
      "umacker": 2796,
      "Ġ183": 2797,
      "Ġconseil": 2798,
      "Ġimpossible": 2799,
      "ville": 2800,
      "Ġrues": 2801,
      "oth": 2802,
      "Ġdevait": 2803,
      "Ġfriss": 2804,
      "Ġressembl": 2805,
      "Ġlarge": 2806,
      "SE": 2807,
      "bes": 2808,
      "iance": 2809,
      "erte": 2810,
      "ĠnÃ©cess": 2811,
      "Ġrap": 2812,
      "sec": 2813,
      "ANI": 2814,
      "auss": 2815,
      "Cela": 2816,
      "Ġval": 2817,
      "ater": 2818,
      "iver": 2819,
      "tru": 2820,
      "ĠreprÃ©sent": 2821,
      "ERNANI": 2822,
      "Ġord": 2823,
      "Ġsingul": 2824,
      "Ġrent": 2825,
      "Ġrang": 2826,
      "appro": 2827,
      "ĠforÃªt": 2828,
      "ĠclartÃ©": 2829,
      "cteur": 2830,
      "Ġfilles": 2831,
      "Ġetes": 2832,
      "atri": 2833,
      "Ġplan": 2834,
      "Ã®t": 2835,
      "Ġ17": 2836,
      "Ġcris": 2837,
      "Ne": 2838,
      "rons": 2839,
      "Ã©b": 2840,
      "Ġcir": 2841,
      "ĠGavroche": 2842,
      "ĠfrÃ¨re": 2843,
      "Ġministre": 2844,
      "ouvant": 2845,
      "Ġsubl": 2846,
      "Ġpassait": 2847,
      "ouffre": 2848,
      "Ġfleur": 2849,
      "endemain": 2850,
      "00": 2851,
      "Ap": 2852,
      "pte": 2853,
      "ym": 2854,
      "euses": 2855,
      "alite": 2856,
      "ĠPh": 2857,
      "Ġcroire": 2858,
      "Ġmalheur": 2859,
      "Ġ184": 2860,
      "HERNANI": 2861,
      "TI": 2862,
      "Ġlire": 2863,
      "Ġtenait": 2864,
      "iner": 2865,
      "Ġrendre": 2866,
      "agnes": 2867,
      "abeau": 2868,
      "onnier": 2869,
      "Ġsucc": 2870,
      "Ġresp": 2871,
      "Ġrepres": 2872,
      "Ġparlait": 2873,
      "ĠÃ": 2874,
      "quelles": 2875,
      "etat": 2876,
      "Ġvainc": 2877,
      "ĠplutÃ´t": 2878,
      "faire": 2879,
      "erme": 2880,
      "Ġtient": 2881,
      "antine": 2882,
      "ĠCet": 2883,
      "ager": 2884,
      "Ġarrive": 2885,
      "Ġlivres": 2886,
      "rap": 2887,
      "vingt": 2888,
      "lex": 2889,
      "Ġrav": 2890,
      "ĠVoltaire": 2891,
      "Ġarbres": 2892,
      "exil": 2893,
      "Ġcommen": 2894,
      "Ġnoms": 2895,
      "Ġgenoux": 2896,
      "Ġchercher": 2897,
      "endez": 2898,
      "Allemagne": 2899,
      "TRI": 2900,
      "sont": 2901,
      "Ã©ne": 2902,
      "Ġclair": 2903,
      "Ġvivant": 2904,
      "Ġsouffle": 2905,
      "Ġaveu": 2906,
      "Ġdemain": 2907,
      "Ġlaisser": 2908,
      "Ġrappel": 2909,
      "Ġpensee": 2910,
      "mal": 2911,
      "rou": 2912,
      "Ġdorm": 2913,
      "one": 2914,
      "etes": 2915,
      "Ġmyst": 2916,
      "Ġbrig": 2917,
      "Ġruine": 2918,
      "Ġaug": 2919,
      "Ġplais": 2920,
      "autor": 2921,
      "Ġvieilles": 2922,
      "fini": 2923,
      "Ġajouta": 2924,
      "Ġsituation": 2925,
      "pens": 2926,
      "rÃ©t": 2927,
      "quatre": 2928,
      "Ġleva": 2929,
      "ĠbrÃ»": 2930,
      "Ġlongue": 2931,
      "ellent": 2932,
      "ĊĊĠĠĠĠĠĠĠĠĠ": 2933,
      "fort": 2934,
      "Ġdon": 2935,
      "Ġlis": 2936,
      "Ã©an": 2937,
      "Ġensemble": 2938,
      "Ġparfois": 2939,
      "Ã´le": 2940,
      "Quoi": 2941,
      "Ġabsol": 2942,
      "ĠlaissÃ©": 2943,
      "Ġcertain": 2944,
      "Italie": 2945,
      "oiles": 2946,
      "Ġbles": 2947,
      "Ġportes": 2948,
      "Ġsinistre": 2949,
      "Ġdoigt": 2950,
      "BOU": 2951,
      "Ġdouleur": 2952,
      "Ġnomme": 2953,
      "Ãªmes": 2954,
      "amment": 2955,
      "utes": 2956,
      "Ã¢ti": 2957,
      "uits": 2958,
      "Ġvoyez": 2959,
      "Ġobscur": 2960,
      "Ġsuppl": 2961,
      "Ġprodig": 2962,
      "Ġpuissance": 2963,
      "Ġsoldat": 2964,
      "BOULET": 2965,
      "Victor": 2966,
      "ĠmÃ©d": 2967,
      "ura": 2968,
      "ierge": 2969,
      "univers": 2970,
      "iait": 2971,
      "ĠFauchelevent": 2972,
      "Ġ185": 2973,
      "ĠrÃªve": 2974,
      "18": 2975,
      "Espagne": 2976,
      "tor": 2977,
      "uls": 2978,
      "Ġdevient": 2979,
      "Ġcouronne": 2980,
      "ĠdÃ©sesp": 2981,
      "!_": 2982,
      "lande": 2983,
      "arriv": 2984,
      "urg": 2985,
      "Ġpoursui": 2986,
      "ondres": 2987,
      "otte": 2988,
      "Ã©ric": 2989,
      "Ġvivre": 2990,
      "tÃ©rÃªt": 2991,
      "SIEUR": 2992,
      "ĠfranÃ§ais": 2993,
      "Ġbrusquement": 2994,
      "ip": 2995,
      "ĠsÃ©p": 2996,
      "Ġmod": 2997,
      "oile": 2998,
      "aprÃ¨s": 2999,
      "ĠprogrÃ¨s": 3000,
      "oncer": 3001,
      "Ġmarch": 3002,
      "ext": 3003,
      "aÃ®ne": 3004,
      "ettait": 3005,
      "thel": 3006,
      "Ġanglais": 3007,
      "TRIBOULET": 3008,
      "comp": 3009,
      "Ġloup": 3010,
      "Ġquarante": 3011,
      "rif": 3012,
      "ĠprÃªtre": 3013,
      "ĠÃ©criv": 3014,
      "Ġvoulait": 3015,
      "semblee": 3016,
      "Ġoccup": 3017,
      "ĠNapolÃ©on": 3018,
      "Comment": 3019,
      "ction": 3020,
      "naire": 3021,
      "Ġpair": 3022,
      "rad": 3023,
      "Ġfrat": 3024,
      "ĠÃ©cout": 3025,
      "ĠrÃªver": 3026,
      "calier": 3027,
      "ĠGillenormand": 3028,
      "tous": 3029,
      "env": 3030,
      "Ġvite": 3031,
      "Ã©tu": 3032,
      "Ġentendre": 3033,
      "istor": 3034,
      "Ġext": 3035,
      "occup": 3036,
      "Sur": 3037,
      "ĠlÃ¨": 3038,
      "enri": 3039,
      "Ġdeuil": 3040,
      "Ġchois": 3041,
      "Ġaime": 3042,
      "Ġferme": 3043,
      "toutes": 3044,
      "ĊĊĠĠĠĠĠĠĠĠĠĠĠĠĠĠĠĠĠĠĠ": 3045,
      "Ġcinqu": 3046,
      "Ġmeurt": 3047,
      "LOS": 3048,
      "bon": 3049,
      "lum": 3050,
      "Ġsplend": 3051,
      "erv": 3052,
      "euf": 3053,
      "aujourd": 3054,
      "ceau": 3055,
      "Ġmalheureux": 3056,
      "ĠtantÃ´t": 3057,
      "Ġmise": 3058,
      "acre": 3059,
      "Ġmem": 3060,
      "ĠRe": 3061,
      "ĠQuoi": 3062,
      "Ġregardait": 3063,
      "Ġattend": 3064,
      "ernel": 3065,
      "Ġlutte": 3066,
      "Ġlueur": 3067,
      "Dieu": 3068,
      "ak": 3069,
      "Ãĳ": 3070,
      "Ġdigne": 3071,
      "itation": 3072,
      "Ġgui": 3073,
      "Ġplac": 3074,
      "iÃ¨rement": 3075,
      "Ġmoments": 3076,
      "Ġmagnifique": 3077,
      "Ġformidable": 3078,
      "IL": 3079,
      "Is": 3080,
      "jec": 3081,
      "aid": 3082,
      "aigne": 3083,
      "ĠsÃ©v": 3084,
      "Ġbor": 3085,
      "ĠVoilÃł": 3086,
      "ĠcolÃ¨re": 3087,
      "Ġsoeur": 3088,
      "ĠprÃ©cip": 3089,
      "ĠÃ¢mes": 3090,
      "ÃĳA": 3091,
      "ias": 3092,
      "land": 3093,
      "ĠlÃ¢": 3094,
      "arre": 3095,
      "Ġgri": 3096,
      "Ġreine": 3097,
      "andis": 3098,
      "rayant": 3099,
      "Ġarra": 3100,
      "ONSIEUR": 3101,
      "herbe": 3102,
      "Ġdents": 3103,
      "Ã©le": 3104,
      "Ġmine": 3105,
      "Ġvint": 3106,
      "els": 3107,
      "Ġjoy": 3108,
      "prise": 3109,
      "Ġcesse": 3110,
      "Ã§Ãł": 3111,
      "Ã»te": 3112,
      "Ġparticul": 3113,
      "ormais": 3114,
      "Ġempl": 3115,
      "Ġterr": 3116,
      "pi": 3117,
      "ril": 3118,
      "ase": 3119,
      "rine": 3120,
      "Ġcha": 3121,
      "irabeau": 3122,
      "Ġgener": 3123,
      "Ġnouvelle": 3124,
      "Ġtranquille": 3125,
      "lÃ©": 3126,
      "ption": 3127,
      "Ġlendemain": 3128,
      "Ġsomm": 3129,
      "ĠtÃ©m": 3130,
      "Ġchau": 3131,
      "ands": 3132,
      "rÃ©d": 3133,
      "Ġgroupe": 3134,
      "quelque": 3135,
      "ĠpitiÃ©": 3136,
      "Ġlugubre": 3137,
      "Al": 3138,
      "Ġbais": 3139,
      "Ġenne": 3140,
      "Ġgagn": 3141,
      "Ġhonte": 3142,
      "Ġchamp": 3143,
      "ĠCAR": 3144,
      "Ġcompos": 3145,
      "otion": 3146,
      "Ġeffort": 3147,
      "Ġblanche": 3148,
      "uction": 3149,
      "ernelle": 3150,
      "Ġcertaine": 3151,
      "conque": 3152,
      "Ġjuin": 3153,
      "Ġspectacle": 3154,
      "ancelier": 3155,
      "pol": 3156,
      "leurs": 3157,
      "armes": 3158,
      "Ġvilles": 3159,
      "eulement": 3160,
      "Ġautant": 3161,
      "ĠCour": 3162,
      "ĠAl": 3163,
      "ĠOÃ¹": 3164,
      "Ġgrandeur": 3165,
      "ingoire": 3166,
      "ĠtroisiÃ¨me": 3167,
      "Ġrecul": 3168,
      "Ġsecret": 3169,
      "Th": 3170,
      "ĠtÃªtes": 3171,
      "Ġband": 3172,
      "Ã´ne": 3173,
      "Ã©rÃ©": 3174,
      "chesse": 3175,
      "Ġquestions": 3176,
      "cinq": 3177,
      "vec": 3178,
      "ÃĪ": 3179,
      "enue": 3180,
      "ĠcÅĵur": 3181,
      "quÃ©": 3182,
      "iction": 3183,
      "ĠSes": 3184,
      "Ã´me": 3185,
      "ayant": 3186,
      "attend": 3187,
      "Ġseconde": 3188,
      "Ġpapier": 3189,
      "Ġchapeau": 3190,
      "jeu": 3191,
      "vard": 3192,
      "yle": 3193,
      "enaient": 3194,
      "rel": 3195,
      "Ġtes": 3196,
      "Ġtir": 3197,
      "atique": 3198,
      "Ġgouffre": 3199,
      "Ġprol": 3200,
      "Ġdites": 3201,
      "Ġsupr": 3202,
      "Ġuniversel": 3203,
      "Ġpoing": 3204,
      "ires": 3205,
      "Ġdivers": 3206,
      "uisse": 3207,
      "Ã©ration": 3208,
      "ĠrÃ©pÃ©t": 3209,
      "Ġalla": 3210,
      "Ġamour": 3211,
      "idement": 3212,
      "Ġlorsqu": 3213,
      "Ġintellig": 3214,
      "_;": 3215,
      "hie": 3216,
      "sans": 3217,
      "uet": 3218,
      "vez": 3219,
      "oureux": 3220,
      "ani": 3221,
      "usse": 3222,
      "seigneur": 3223,
      "rod": 3224,
      "Ġentendu": 3225,
      "assin": 3226,
      "Ġobser": 3227,
      "Ġprincip": 3228,
      "ĠPourquoi": 3229,
      "eries": 3230,
      "ination": 3231,
      "Ġleg": 3232,
      "ettez": 3233,
      "onction": 3234,
      "hon": 3235,
      "nait": 3236,
      "Ġvin": 3237,
      "Ġfur": 3238,
      "ouvert": 3239,
      "ierres": 3240,
      "ĠMa": 3241,
      "Ġprogres": 3242,
      "ublic": 3243,
      "Ġfaisaient": 3244,
      "Ġpetites": 3245,
      "Ġrevolution": 3246,
      "Ġriche": 3247,
      "Ġvertu": 3248,
      "CHE": 3249,
      "VI": 3250,
      "pÃ¨re": 3251,
      "sort": 3252,
      "Ã©qu": 3253,
      "Ġfil": 3254,
      "ĠreÃ§": 3255,
      "Ġregarder": 3256,
      "Ġrefus": 3257,
      "DOÃĳA": 3258,
      "ĠsÃ»r": 3259,
      "vin": 3260,
      "Ġmaire": 3261,
      "ĠvÃ©n": 3262,
      "Ġban": 3263,
      "Ġbons": 3264,
      "ĠÃ©d": 3265,
      "Ġtrait": 3266,
      "ueill": 3267,
      "Ġbris": 3268,
      "Ġbaron": 3269,
      "ĠfenÃªtres": 3270,
      "Ġquinze": 3271,
      "LAN": 3272,
      "cul": 3273,
      "trois": 3274,
      "ĠdÃ¨s": 3275,
      "Ġcord": 3276,
      "anne": 3277,
      "ĠbÃ©n": 3278,
      "ĠgoÃ»t": 3279,
      "Ġchange": 3280,
      "Ġtrag": 3281,
      "onnait": 3282,
      "Ġfera": 3283,
      "Ġchevaux": 3284,
      "Pourquoi": 3285,
      "Ġpape": 3286,
      "ĠpavÃ©": 3287,
      "ĠCARLOS": 3288,
      "ck": 3289,
      "ziÃ¨me": 3290,
      "Ġignor": 3291,
      "tez": 3292,
      "admir": 3293,
      "dessous": 3294,
      "ĠprÃ©sence": 3295,
      "Åĵil": 3296,
      "Ġrobe": 3297,
      "ĠpiÃ¨ce": 3298,
      "intelligence": 3299,
      "beau": 3300,
      "Ġlentement": 3301,
      "Ġsus": 3302,
      "Ġquant": 3303,
      "omn": 3304,
      "otes": 3305,
      "Ġmeille": 3306,
      "appe": 3307,
      "enseigne": 3308,
      "icile": 3309,
      "Ġdouze": 3310,
      "Ġpersonn": 3311,
      "ĠderniÃ¨re": 3312,
      "Ġhorrible": 3313,
      "Ġmonstre": 3314,
      "France": 3315,
      "sour": 3316,
      "Ġfaud": 3317,
      "Ġrentre": 3318,
      "issaient": 3319,
      "ĠÃ©poque": 3320,
      "immense": 3321,
      "const": 3322,
      "yrac": 3323,
      "Ġrepresent": 3324,
      "faud": 3325,
      "Ġutile": 3326,
      "ĠCor": 3327,
      "ivement": 3328,
      "Ġmesure": 3329,
      "Ġcontinua": 3330,
      "mine": 3331,
      "sÃ©": 3332,
      "sin": 3333,
      "Ġrele": 3334,
      "Ġoeuvre": 3335,
      "ifs": 3336,
      "Ġcapitaine": 3337,
      "Ġsouverain": 3338,
      "feyrac": 3339,
      "IN": 3340,
      "tait": 3341,
      "uÃ©": 3342,
      "ĠpÃ¢le": 3343,
      "erai": 3344,
      "ĠmÃ©ch": 3345,
      "chÃ©e": 3346,
      "rid": 3347,
      "ĠchÃ¢teau": 3348,
      "Ġneige": 3349,
      "utile": 3350,
      "tesse": 3351,
      "Ġprinces": 3352,
      "ĠpÃ©nÃ©t": 3353,
      "col": 3354,
      "man": 3355,
      "Ġcat": 3356,
      "Ġtit": 3357,
      "Ġtend": 3358,
      "Ġroul": 3359,
      "Ġhonn": 3360,
      "Ġneuf": 3361,
      "ĠSOL": 3362,
      "ĠdÃ©pl": 3363,
      "Ġconstr": 3364,
      "Ġmonstru": 3365,
      "Ġbleu": 3366,
      "arrÃªta": 3367,
      "Ġredoutable": 3368,
      "peut": 3369,
      "blanc": 3370,
      "ĠAlors": 3371,
      "iquement": 3372,
      "ĠtrouvÃ©": 3373,
      "Ġnoirs": 3374,
      "Ġsatis": 3375,
      "grÃ©": 3376,
      "jon": 3377,
      "Ġ3": 3378,
      "Ġordre": 3379,
      "ĠsÃ©ri": 3380,
      "Ġvic": 3381,
      "orge": 3382,
      "Ġbaiss": 3383,
      "Ġrit": 3384,
      "rite": 3385,
      "rang": 3386,
      "idÃ©": 3387,
      "Ġpassage": 3388,
      "Ġ181": 3389,
      "Ġgrosse": 3390,
      "Ġflamme": 3391,
      "bus": 3392,
      "porte": 3393,
      "Ġide": 3394,
      "meme": 3395,
      "Ġense": 3396,
      "ĠLondres": 3397,
      "istance": 3398,
      "Ġ16": 3399,
      "obles": 3400,
      "Ġ187": 3401,
      "Ġvoyant": 3402,
      "ĠmisÃ©rable": 3403,
      "Ordener": 3404,
      "regard": 3405,
      "IS": 3406,
      "VoilÃł": 3407,
      "val": 3408,
      "venu": 3409,
      "ĠÃ§Ãł": 3410,
      "Ġdim": 3411,
      "ĠsÃ©n": 3412,
      "orÃ©": 3413,
      "orateur": 3414,
      "chet": 3415,
      "cept": 3416,
      "acques": 3417,
      "race": 3418,
      "ieuses": 3419,
      "glise": 3420,
      "Ġglor": 3421,
      "ĠmisÃ¨re": 3422,
      "ernitÃ©": 3423,
      "Ġrayon": 3424,
      "Ġdisparu": 3425,
      "Tous": 3426,
      "Ġ\"": 3427,
      "Ġcependant": 3428,
      "ondrette": 3429,
      "ĠToute": 3430,
      "Ã©copin": 3431,
      "ictoire": 3432,
      "Ġmontagne": 3433,
      "ĠpoÃ¨te": 3434,
      "ĠdestinÃ©e": 3435,
      "Ġcadavre": 3436,
      "Alors": 3437,
      "suite": 3438,
      "eng": 3439,
      "entend": 3440,
      "Ġfaux": 3441,
      "Ġbatt": 3442,
      "Ġchiff": 3443,
      "Ġmonarchie": 3444,
      "'_": 3445,
      "vu": 3446,
      "Ġmir": 3447,
      "Ġriv": 3448,
      "Ġexemple": 3449,
      "Ġformes": 3450,
      "encore": 3451,
      "ĠgÃ©nÃ©": 3452,
      "Ġvoiture": 3453,
      "Mouvement": 3454,
      "Ġlune": 3455,
      "Ġvaut": 3456,
      "Ġvide": 3457,
      "eci": 3458,
      "Ġbeaux": 3459,
      "ĠpoÃ«te": 3460,
      "Ġmillions": 3461,
      "Ġsublime": 3462,
      "mons": 3463,
      "Ġpil": 3464,
      "Ġput": 3465,
      "Ġpoit": 3466,
      "Ġtor": 3467,
      "its": 3468,
      "Ġrais": 3469,
      "Ã¨le": 3470,
      "ries": 3471,
      "rande": 3472,
      "istr": 3473,
      "Ġaccep": 3474,
      "Ġsoix": 3475,
      "Ġinex": 3476,
      "Islande": 3477,
      "lant": 3478,
      "isc": 3479,
      "Ġetc": 3480,
      "itiques": 3481,
      "devant": 3482,
      "onds": 3483,
      "llons": 3484,
      "her": 3485,
      "pass": 3486,
      "Ġouverte": 3487,
      "Ġdir": 3488,
      "quin": 3489,
      "Ġmurs": 3490,
      "Ġjette": 3491,
      "Ãªtu": 3492,
      "Ġapport": 3493,
      "Ġcouvert": 3494,
      "Ġsuffit": 3495,
      "Ġvoyageur": 3496,
      "Ġstup": 3497,
      "rÃ©dÃ©ric": 3498,
      "gÃ©n": 3499,
      "moment": 3500,
      "Ġpierres": 3501,
      "Ġuns": 3502,
      "Ġtrad": 3503,
      "Ġpeuvent": 3504,
      "Ġvote": 3505,
      "Ġeffray": 3506,
      "effet": 3507,
      "Ġsocial": 3508,
      "ĠprÃ©f": 3509,
      "ĠthÃ©Ã¢tre": 3510,
      "Ġboulevard": 3511,
      "pouv": 3512,
      "tent": 3513,
      "ules": 3514,
      "Ġsoule": 3515,
      "ref": 3516,
      "tein": 3517,
      "arc": 3518,
      "arque": 3519,
      "ormes": 3520,
      "aume": 3521,
      "ieme": 3522,
      "Ã®tres": 3523,
      "Ġarm": 3524,
      "Ġsuc": 3525,
      "heim": 3526,
      "Ġrapport": 3527,
      "Ġfatig": 3528,
      "ĠSchumacker": 3529,
      "obscuritÃ©": 3530,
      "fran": 3531,
      "iane": 3532,
      "ox": 3533,
      "pied": 3534,
      "Ġauquel": 3535,
      "Ġpard": 3536,
      "Ġmarcher": 3537,
      "rection": 3538,
      "Ġentendait": 3539,
      "Ġemb": 3540,
      "Ġtransf": 3541,
      "ĠmystÃ©rieux": 3542,
      "Ġsoixante": 3543,
      "MONSIEUR": 3544,
      "iments": 3545,
      "Ġpous": 3546,
      "aurais": 3547,
      "rien": 3548,
      "ĠMirabeau": 3549,
      "ĠdÃ©n": 3550,
      "ĠAprÃ¨s": 3551,
      "oreille": 3552,
      "ements": 3553,
      "clar": 3554,
      "Ġrecomm": 3555,
      "Ġjeter": 3556,
      "Ġproduit": 3557,
      "Ġjeunesse": 3558,
      "ĠÃ©norme": 3559,
      "Ġallez": 3560,
      "Ġmembres": 3561,
      "ds": 3562,
      "fs": 3563,
      "eld": 3564,
      "ontÃ©": 3565,
      "Ġbrav": 3566,
      "ĠHan": 3567,
      "sup": 3568,
      "Ġsages": 3569,
      "auc": 3570,
      "Ġchair": 3571,
      "ĠDeux": 3572,
      "ĠPlus": 3573,
      "Ġpuisque": 3574,
      "chafaud": 3575,
      "ĠfranÃ§aise": 3576,
      "Ġancien": 3577,
      "dro": 3578,
      "dÃ©s": 3579,
      "ta": 3580,
      "Ġdedans": 3581,
      "enture": 3582,
      "isse": 3583,
      "aules": 3584,
      "ĠrÃ¨": 3585,
      "Ġrepar": 3586,
      "ĠdÃ©d": 3587,
      "ĠBour": 3588,
      "ifie": 3589,
      "Ã©drale": 3590,
      "Ġappro": 3591,
      "ĠbeautÃ©": 3592,
      "Ġlumiere": 3593,
      "Ġfaible": 3594,
      "bert": 3595,
      "onnant": 3596,
      "ĠFantine": 3597,
      "ails": 3598,
      "Ġquoique": 3599,
      "ĠlittÃ©r": 3600,
      "Ġlords": 3601,
      "point": 3602,
      "ouch": 3603,
      "chose": 3604,
      "abÃ®me": 3605,
      "Ġobl": 3606,
      "Ġentra": 3607,
      "rÃ©es": 3608,
      "ifice": 3609,
      "Ġentrer": 3610,
      "ĠrÃ©publique": 3611,
      "aller": 3612,
      "Ġportait": 3613,
      "Ġcolon": 3614,
      "Ġcorde": 3615,
      "Ġcompagn": 3616,
      "Ġimmob": 3617,
      "Ġinstants": 3618,
      "Ġorg": 3619,
      "Ġhideux": 3620,
      "toujours": 3621,
      "reuse": 3622,
      "Ġclef": 3623,
      "Ġtas": 3624,
      "intÃ©rieur": 3625,
      "infini": 3626,
      "Ã¨che": 3627,
      "uns": 3628,
      "Ġinqui": 3629,
      "ĠGO": 3630,
      "itudes": 3631,
      "enfer": 3632,
      "vention": 3633,
      "udry": 3634,
      "Ġnationale": 3635,
      "Ġentendit": 3636,
      "hiver": 3637,
      "lib": 3638,
      "ppe": 3639,
      "tomb": 3640,
      "Ġsainte": 3641,
      "Ġviennent": 3642,
      "Ġbelles": 3643,
      "Ġgout": 3644,
      "rire": 3645,
      "riers": 3646,
      "agudry": 3647,
      "ĠtraÃ®": 3648,
      "prÃ©": 3649,
      "Ġscience": 3650,
      "Ġcouvent": 3651,
      "Ġjuges": 3652,
      "Ġsiecle": 3653,
      "piagudry": 3654,
      "ĠsuprÃªme": 3655,
      "acher": 3656,
      "kil": 3657,
      "nation": 3658,
      "Ġsoul": 3659,
      "Ġcamp": 3660,
      "Ġgib": 3661,
      "rame": 3662,
      "angÃ©": 3663,
      "Ġexist": 3664,
      "tient": 3665,
      "Ġtourna": 3666,
      "Ġmontre": 3667,
      "Ġsentit": 3668,
      "Ġsuper": 3669,
      "Ġcombatt": 3670,
      "instant": 3671,
      "Ġcontempl": 3672,
      "],": 3673,
      "pose": 3674,
      "ĠmÃ©m": 3675,
      "entendre": 3676,
      "omin": 3677,
      "autÃ©": 3678,
      "ator": 3679,
      "Ġeng": 3680,
      "oiselle": 3681,
      "Ġenvoy": 3682,
      "ĠGringoire": 3683,
      "phedro": 3684,
      "iÃ©s": 3685,
      "ĠdÃ»": 3686,
      "ison": 3687,
      "Ġtum": 3688,
      "urant": 3689,
      "ames": 3690,
      "Ġep": 3691,
      "ĠPRE": 3692,
      "cipe": 3693,
      "ĠrÃ©veill": 3694,
      "Ġailes": 3695,
      "ogne": 3696,
      "Ġconstitution": 3697,
      "ĠmÃ©de": 3698,
      "Ġplaisir": 3699,
      "kilphedro": 3700,
      "OM": 3701,
      "aret": 3702,
      "lu": 3703,
      "itoyens": 3704,
      "Ã©sie": 3705,
      "ĠÃ©b": 3706,
      "chez": 3707,
      "illot": 3708,
      "plique": 3709,
      "cieux": 3710,
      "ĠrÃ©v": 3711,
      "Ġmarbre": 3712,
      "ĠQuant": 3713,
      "Ġsortait": 3714,
      "Ġmuraille": 3715,
      "Ġcertains": 3716,
      "appelait": 3717,
      "viol": 3718,
      "Ġtriomphe": 3719,
      "cident": 3720,
      "humanitÃ©": 3721,
      "cor": 3722,
      "garde": 3723,
      "nant": 3724,
      "eres": 3725,
      "teint": 3726,
      "eule": 3727,
      "Ġfi": 3728,
      "ĠfÃªte": 3729,
      "autes": 3730,
      "Ġdure": 3731,
      "Ġhistoire": 3732,
      "ĠLÃł": 3733,
      "lame": 3734,
      "ogue": 3735,
      "Ġpropri": 3736,
      "horreur": 3737,
      "Ġdiscours": 3738,
      "DA": 3739,
      "bat": 3740,
      "gles": 3741,
      "haut": 3742,
      "Ġdout": 3743,
      "onse": 3744,
      "Ġcuir": 3745,
      "Ġmoit": 3746,
      "Ġmidi": 3747,
      "eute": 3748,
      "Ġrose": 3749,
      "ĠparaÃ®t": 3750,
      "oli": 3751,
      "unes": 3752,
      "ordinaire": 3753,
      "Ġdonnait": 3754,
      "Ġrester": 3755,
      "uves": 3756,
      "Ġrencontre": 3757,
      "Ġcharmant": 3758,
      "elopp": 3759,
      "Ġjournaux": 3760,
      "ĠsÃ©pul": 3761,
      "Ġmus": 3762,
      "ĠmÃ©t": 3763,
      "aurait": 3764,
      "Ã¨de": 3765,
      "Ġhon": 3766,
      "Ġentier": 3767,
      "istres": 3768,
      "Ġtravaill": 3769,
      "Ġvive": 3770,
      "Ġfleuve": 3771,
      "Ġsuffrage": 3772,
      "Mont": 3773,
      "aqu": 3774,
      "ton": 3775,
      "Ġlignes": 3776,
      "Ġtre": 3777,
      "Ġrece": 3778,
      "Ã©rence": 3779,
      "oulet": 3780,
      "aissent": 3781,
      "ignore": 3782,
      "Ġcoeurs": 3783,
      "position": 3784,
      "Ġdemander": 3785,
      "Ġfaim": 3786,
      "iendra": 3787,
      "Ġcinquante": 3788,
      "UY": 3789,
      "ize": 3790,
      "ren": 3791,
      "aigle": 3792,
      "ouer": 3793,
      "Ġchass": 3794,
      "ĠGre": 3795,
      "Ġferm": 3796,
      "Ġeffrayant": 3797,
      "ĠsiÃ¨cles": 3798,
      "Ġjeta": 3799,
      "Ġservice": 3800,
      "prim": 3801,
      "Ġtremble": 3802,
      "Ġdivin": 3803,
      "Ġdocteur": 3804,
      "ĠmajestÃ©": 3805,
      "Mar": 3806,
      "vier": 3807,
      "ĠÃªtres": 3808,
      "Ġcieux": 3809,
      "err": 3810,
      "lemagne": 3811,
      "ĠmÃ©l": 3812,
      "isait": 3813,
      "Ġcompar": 3814,
      "blÃ©e": 3815,
      "lare": 3816,
      "ĠforÃ§": 3817,
      "Ġmontagnes": 3818,
      "Ġresta": 3819,
      "Ġminutes": 3820,
      "ĠÃ©vÃ©ne": 3821,
      "berge": 3822,
      "Ġroyal": 3823,
      "Ġprobablement": 3824,
      "Ġblanch": 3825,
      "ĠnÃ©cessaire": 3826,
      "droit": 3827,
      "neuv": 3828,
      "Ġlac": 3829,
      "Ġtress": 3830,
      "Ġgent": 3831,
      "Ġchand": 3832,
      "illons": 3833,
      "anteau": 3834,
      "Ã©gout": 3835,
      "Ġtuer": 3836,
      "Ġsentiment": 3837,
      "ateau": 3838,
      "ĠToutes": 3839,
      "ĠÃ¢ge": 3840,
      "ilippe": 3841,
      "Ġoiseaux": 3842,
      "Ġfarouche": 3843,
      "nist": 3844,
      "pend": 3845,
      "pot": 3846,
      "prem": 3847,
      "red": 3848,
      "Ġfurent": 3849,
      "Ġty": 3850,
      "aule": 3851,
      "alitÃ©s": 3852,
      "Ã©sar": 3853,
      "Ġprise": 3854,
      "siÃ¨re": 3855,
      "iteur": 3856,
      "ĠexÃ©c": 3857,
      "ouleurs": 3858,
      "Ġseuil": 3859,
      "ĠmÃªmes": 3860,
      "ĠÃ©chapp": 3861,
      "ĠannÃ©es": 3862,
      "Ġpareil": 3863,
      "Ġadmirable": 3864,
      "Ġpluie": 3865,
      "Ġbrigand": 3866,
      "ceur": 3867,
      "iÃ©e": 3868,
      "Ġsombres": 3869,
      "Ġcim": 3870,
      "Ġmo": 3871,
      "aitre": 3872,
      "Ġvictoire": 3873,
      "ĠtÃ¢": 3874,
      "Ġbiz": 3875,
      "Ġris": 3876,
      "Ãªter": 3877,
      "Ġchute": 3878,
      "oindre": 3879,
      "ĠmaÃ®tres": 3880,
      "Ġscul": 3881,
      "interromp": 3882,
      "MEZ": 3883,
      "Ġspectre": 3884,
      "Ġobscure": 3885,
      "ĠGOMEZ": 3886,
      "Cet": 3887,
      "tÃªte": 3888,
      "espe": 3889,
      "ĠpÃ¢": 3890,
      "rep": 3891,
      "Ġtours": 3892,
      "ith": 3893,
      "Ã¨bre": 3894,
      "ivid": 3895,
      "Ġsimp": 3896,
      "ĠRUY": 3897,
      "Ġdisant": 3898,
      "Ġcroix": 3899,
      "ĠEnjolras": 3900,
      "Ġconfus": 3901,
      "ĠcondamnÃ©": 3902,
      "Ġessay": 3903,
      "LA": 3904,
      "moins": 3905,
      "ss": 3906,
      "test": 3907,
      "yb": 3908,
      "ĠIII": 3909,
      "escalier": 3910,
      "Ġpur": 3911,
      "Ġmanger": 3912,
      "Ġlever": 3913,
      "astre": 3914,
      "rice": 3915,
      "geait": 3916,
      "Ġoutre": 3917,
      "Ġdisent": 3918,
      "ĠjournÃ©e": 3919,
      "exc": 3920,
      "ĠIn": 3921,
      "Ġcerv": 3922,
      "hÃ´tel": 3923,
      "Ainsi": 3924,
      "cela": 3925,
      "fem": 3926,
      "mil": 3927,
      "mÃªmes": 3928,
      "Ġpou": 3929,
      "Ġremerc": 3930,
      "Ġprenait": 3931,
      "acte": 3932,
      "prouv": 3933,
      "Ġmonte": 3934,
      "lace": 3935,
      "Ġdevenu": 3936,
      "Ġserment": 3937,
      "ocat": 3938,
      "Ġrepond": 3939,
      "LES": 3940,
      "ĠIV": 3941,
      "Ġcanon": 3942,
      "Ġrocher": 3943,
      "Ġpoitrine": 3944,
      "AprÃ¨s": 3945,
      "imes": 3946,
      "prop": 3947,
      "Ġpure": 3948,
      "Ġcentre": 3949,
      "Ġvillage": 3950,
      "Ġtres": 3951,
      "ĠFrÃ©dÃ©ric": 3952,
      "ĠHenri": 3953,
      "Ġgrille": 3954,
      "Ġpuisse": 3955,
      "empÃª": 3956,
      "Ġprisonnier": 3957,
      "Ġaffaire": 3958,
      "Ġjuillet": 3959,
      "Ġsoient": 3960,
      "Ġmauvaise": 3961,
      "Ġveille": 3962,
      "Applaudissements": 3963,
      "ĠZ": 3964,
      "Ġmass": 3965,
      "Ġventre": 3966,
      "ince": 3967,
      "ates": 3968,
      "chent": 3969,
      "chÃ©s": 3970,
      "ĠgÃ©": 3971,
      "Ġplume": 3972,
      "ĠMes": 3973,
      "ĠprÃªt": 3974,
      "prendre": 3975,
      "ĠVoici": 3976,
      "Ġarme": 3977,
      "oyons": 3978,
      "ĠROI": 3979,
      "Ġexiste": 3980,
      "ancien": 3981,
      "Ġactu": 3982,
      "allÃ©e": 3983,
      "puiss": 3984,
      "Ġtermin": 3985,
      "ernani": 3986,
      "Ad": 3987,
      "Brav": 3988,
      "DENT": 3989,
      "ial": 3990,
      "lie": 3991,
      "rom": 3992,
      "rev": 3993,
      "ertes": 3994,
      "Ġtandis": 3995,
      "Ġnour": 3996,
      "Ġnobles": 3997,
      "aube": 3998,
      "adm": 3999,
      "ĠCependant": 4000,
      "Ġminute": 4001,
      "ĠfumÃ©e": 4002,
      "Ġnavire": 4003,
      "Louis": 4004,
      "sor": 4005,
      "Ġpi": 4006,
      "ilite": 4007,
      "agit": 4008,
      "ouvrit": 4009,
      "Quant": 4010,
      "Ġpassa": 4011,
      "Ġsortit": 4012,
      "ĠmaniÃ¨re": 4013,
      "habit": 4014,
      "ichel": 4015,
      "Ġdoucement": 4016,
      "ocratie": 4017,
      "ĠcathÃ©drale": 4018,
      "ĠCourfeyrac": 4019,
      ".\"": 4020,
      "dou": 4021,
      "hol": 4022,
      "erg": 4023,
      "Ġfan": 4024,
      "Ġfol": 4025,
      "Ġfier": 4026,
      "Ġbann": 4027,
      "Ġparaissait": 4028,
      "Ġhistor": 4029,
      "olique": 4030,
      "ĠMun": 4031,
      "Ġele": 4032,
      "Ġinv": 4033,
      "oisse": 4034,
      "Ġore": 4035,
      "ĠHom": 4036,
      "Ġgris": 4037,
      "Ġaille": 4038,
      "Ġcrimes": 4039,
      "ĠcÃ´tÃ©s": 4040,
      "Ġrestait": 4041,
      "Ġillustre": 4042,
      "cteurs": 4043,
      "dix": 4044,
      "ja": 4045,
      "Ã©rance": 4046,
      "aies": 4047,
      "Ġpes": 4048,
      "Ġafin": 4049,
      "Ġrare": 4050,
      "Ġhar": 4051,
      "osiane": 4052,
      "ersonne": 4053,
      "ĠdÃ©cembre": 4054,
      "ĠElles": 4055,
      "ister": 4056,
      "idemment": 4057,
      "Ġportant": 4058,
      "Ġjoue": 4059,
      "ustrie": 4060,
      "occasion": 4061,
      "Ġvoudrais": 4062,
      "ĠmystÃ¨re": 4063,
      "pusc": 4064,
      "Ġdate": 4065,
      "Ġlion": 4066,
      "Ġlat": 4067,
      "Ġtent": 4068,
      "olet": 4069,
      "aperÃ§": 4070,
      "ĠÃ©blou": 4071,
      "Ġentr": 4072,
      "oupes": 4073,
      "Ġbrume": 4074,
      "time": 4075,
      "trait": 4076,
      "Ġforc": 4077,
      "Ã©di": 4078,
      "Ġallons": 4079,
      "Ġaffir": 4080,
      "ĠjetÃ©": 4081,
      "Ġfrappe": 4082,
      "contre": 4083,
      "ĠrÃªverie": 4084,
      "ĠsÃ©vÃ¨re": 4085,
      "enseignement": 4086,
      "XX": 4087,
      "ios": 4088,
      "pes": 4089,
      "toute": 4090,
      "Ġdor": 4091,
      "Ġpot": 4092,
      "ouette": 4093,
      "Ġcoul": 4094,
      "anim": 4095,
      "armÃ©e": 4096,
      "Ġtue": 4097,
      "rog": 4098,
      "Ġher": 4099,
      "acÃ©": 4100,
      "Ġinnoc": 4101,
      "ĠrÃ©f": 4102,
      "Ã©rait": 4103,
      "Ġarch": 4104,
      "Ġsujet": 4105,
      "Ġressemble": 4106,
      "Ġvenons": 4107,
      "enfants": 4108,
      "Ġvoyage": 4109,
      "verb": 4110,
      "Ġpoche": 4111,
      "Ġemport": 4112,
      "Ġcertaines": 4113,
      "Ġstyle": 4114,
      "ĠÃīthel": 4115,
      "astrop": 4116,
      "ĠAngleterre": 4117,
      "Ġuniverselle": 4118,
      "Ġsabre": 4119,
      "ey": 4120,
      "ruction": 4121,
      "Ġdoul": 4122,
      "assi": 4123,
      "sept": 4124,
      "ĠJondrette": 4125,
      "Ġdisons": 4126,
      "empl": 4127,
      "SIDENT": 4128,
      "Ġreligion": 4129,
      "Ġcommencement": 4130,
      "QUE": 4131,
      "uch": 4132,
      "Ġsymp": 4133,
      "lem": 4134,
      "auro": 4135,
      "Ġbel": 4136,
      "Ãªne": 4137,
      "ĠchaÃ®ne": 4138,
      "Ġplaf": 4139,
      "ieusement": 4140,
      "ĠBel": 4141,
      "imag": 4142,
      "Ġforces": 4143,
      "Ġvenue": 4144,
      "Ġattendant": 4145,
      "Ġadm": 4146,
      "Ġmerveille": 4147,
      "ĠcheminÃ©e": 4148,
      "Ġvoisin": 4149,
      "Ġcitoyen": 4150,
      "Ġtrouble": 4151,
      "ĠgarÃ§on": 4152,
      "Ġstatue": 4153,
      "Note": 4154,
      "Ġz": 4155,
      "Ġdrame": 4156,
      "urait": 4157,
      "Ġhier": 4158,
      "ĠhÃ©r": 4159,
      "Ġtrah": 4160,
      "ĠDU": 4161,
      "ĠTur": 4162,
      "ĠFR": 4163,
      "Ã©rables": 4164,
      "ĠGu": 4165,
      "angle": 4166,
      "Ġappuy": 4167,
      "Ġpremiers": 4168,
      "ĠDepuis": 4169,
      "inconnu": 4170,
      "Ġrayons": 4171,
      "clamations": 4172,
      "ĠPrusse": 4173,
      "peuple": 4174,
      "Ġendorm": 4175,
      "ĠFranÃ§": 4176,
      "Ġcimet": 4177,
      "aurore": 4178,
      "Ex": 4179,
      "cÃ´": 4180,
      "lieu": 4181,
      "mort": 4182,
      "oila": 4183,
      "sac": 4184,
      "Ġpriv": 4185,
      "ouÃ©": 4186,
      "reaux": 4187,
      "arra": 4188,
      "Ġfre": 4189,
      "Ġfonction": 4190,
      "Ġtenir": 4191,
      "Ġbagne": 4192,
      "aises": 4193,
      "ffe": 4194,
      "Ġarmes": 4195,
      "Ġcontent": 4196,
      "Ġfranch": 4197,
      "Ġmanque": 4198,
      "Ġsalut": 4199,
      "Ġfortune": 4200,
      "Ġprincipe": 4201,
      "Ġdistance": 4202,
      "Ġcerc": 4203,
      "Ġjournal": 4204,
      "Ġdrapeau": 4205,
      "ruption": 4206,
      "Ġaveugle": 4207,
      "Ġsommet": 4208,
      ",_": 4209,
      "_.--": 4210,
      "gen": 4211,
      "lait": 4212,
      "ture": 4213,
      "Ġdame": 4214,
      "Ġlarg": 4215,
      "entrÃ©e": 4216,
      "Ġlab": 4217,
      "atoire": 4218,
      "Ġchaise": 4219,
      "ĠPont": 4220,
      "Ã§ant": 4221,
      "oct": 4222,
      "ibles": 4223,
      "Ġparts": 4224,
      "Ã©pÃ©e": 4225,
      "Ġ186": 4226,
      "riere": 4227,
      "ernite": 4228,
      "ossÃ©": 4229,
      "visible": 4230,
      "Ġcroyait": 4231,
      "pliquer": 4232,
      "loo": 4233,
      "LANCHE": 4234,
      "dont": 4235,
      "ration": 4236,
      "sais": 4237,
      "Ã©rer": 4238,
      "Ġpan": 4239,
      "Ġment": 4240,
      "ares": 4241,
      "Ġveu": 4242,
      "Ġnord": 4243,
      "aug": 4244,
      "aindre": 4245,
      "ĠMay": 4246,
      "acer": 4247,
      "ĠAinsi": 4248,
      "Ġpassion": 4249,
      "insur": 4250,
      "rets": 4251,
      "attention": 4252,
      "aillons": 4253,
      "Ġporter": 4254,
      "Ġobst": 4255,
      "Ġanne": 4256,
      "Ġvraie": 4257,
      "nistie": 4258,
      "Aut": 4259,
      "cr": 4260,
      "face": 4261,
      "Ġsuit": 4262,
      "Ġtap": 4263,
      "Ġroses": 4264,
      "Ã¨se": 4265,
      "ĠprÃ©v": 4266,
      "Ġmarquis": 4267,
      "Ġencor": 4268,
      "Ġvoie": 4269,
      "Ġmalad": 4270,
      "ĠnommÃ©": 4271,
      "inture": 4272,
      "Ġvivants": 4273,
      "Ġcherche": 4274,
      "Ġcompris": 4275,
      "Ġpensif": 4276,
      "aterloo": 4277,
      "Ġauguste": 4278,
      "Ġjoyeux": 4279,
      "Re": 4280,
      "VICTOR": 4281,
      "fum": 4282,
      "umes": 4283,
      "Ġmand": 4284,
      "Ġboire": 4285,
      "ĠComment": 4286,
      "iron": 4287,
      "Ġtristes": 4288,
      "ĠPÃ©copin": 4289,
      "onnÃ©e": 4290,
      "ĠrÃ©c": 4291,
      "ĠNotre": 4292,
      "Ġmach": 4293,
      "ientÃ´t": 4294,
      "Ġamb": 4295,
      "ĠÃ©paules": 4296,
      "Ġvivement": 4297,
      "Ġmanqu": 4298,
      "serv": 4299,
      "Ġpolitiques": 4300,
      "Ġvraiment": 4301,
      "tÃ©rieure": 4302,
      "Ġinterromp": 4303,
      "Ġblancs": 4304,
      "Ġsommeil": 4305,
      "Sans": 4306,
      "hous": 4307,
      "nÃ©s": 4308,
      "Ġdanger": 4309,
      "Ġcam": 4310,
      "Ġfav": 4311,
      "Ġjadis": 4312,
      "Ġhautes": 4313,
      "ĠSans": 4314,
      "ureur": 4315,
      "Ġaperce": 4316,
      "...--": 4317,
      "Ġpassants": 4318,
      "Ġpartir": 4319,
      "clav": 4320,
      "Ġcharge": 4321,
      "Ġsuperbe": 4322,
      "Ġaffreux": 4323,
      "ĠQuelque": 4324,
      "Ġtribun": 4325,
      "ĠvolontÃ©": 4326,
      "jusqu": 4327,
      "feu": 4328,
      "oil": 4329,
      "Ġvaill": 4330,
      "ĠvÃªtu": 4331,
      "Ġtete": 4332,
      "ourag": 4333,
      "urne": 4334,
      "atres": 4335,
      "Ġgend": 4336,
      "ĠComb": 4337,
      "mpe": 4338,
      "aph": 4339,
      "ĠSous": 4340,
      "llement": 4341,
      "emb": 4342,
      "Ġexpl": 4343,
      "Ġmonter": 4344,
      "Ġattention": 4345,
      "Ġvisible": 4346,
      "Ġaccompl": 4347,
      "Ġsuiv": 4348,
      "ĠcrÃ©pusc": 4349,
      "clamation": 4350,
      "Ġtriomph": 4351,
      "Ġtalent": 4352,
      "housias": 4353,
      "Car": 4354,
      "Dame": 4355,
      "mand": 4356,
      "pet": 4357,
      "rest": 4358,
      "uff": 4359,
      "Ġpend": 4360,
      "quest": 4361,
      "Ġmode": 4362,
      "teau": 4363,
      "ĠfÃ©ro": 4364,
      "Ġnus": 4365,
      "oids": 4366,
      "Ġparut": 4367,
      "ĠÃ©toiles": 4368,
      "ondes": 4369,
      "ĠarriÃ¨re": 4370,
      "Ġdemeur": 4371,
      "ĠtuÃ©": 4372,
      "posÃ©": 4373,
      "Ġguer": 4374,
      "Ġtrouvait": 4375,
      "Ġsociete": 4376,
      "Ġservir": 4377,
      "cture": 4378,
      "Ġcitoyens": 4379,
      "ĠPRESIDENT": 4380,
      "BLANCHE": 4381,
      "Maintenant": 4382,
      "civ": 4383,
      "for": 4384,
      "petit": 4385,
      "voix": 4386,
      "Ġ4": 4387,
      "ouches": 4388,
      "Ġfosse": 4389,
      "ĠbÃ¢ti": 4390,
      "ĠgÃ©ant": 4391,
      "riez": 4392,
      "Ġoeil": 4393,
      "sibles": 4394,
      "illus": 4395,
      "ensation": 4396,
      "Ġrepos": 4397,
      "quelques": 4398,
      "ĠparlÃ©": 4399,
      "ĠprofondÃ©ment": 4400,
      "Ġmorale": 4401,
      "Ġsauver": 4402,
      "Ġsauvage": 4403,
      "Ġappelait": 4404,
      "Ġflots": 4405,
      "eulent": 4406,
      "Ġcolonel": 4407,
      "Ma": 4408,
      "OUR": 4409,
      "comb": 4410,
      "den": 4411,
      "long": 4412,
      "Ġpun": 4413,
      "Ġcens": 4414,
      "Ġdeja": 4415,
      "Ġramp": 4416,
      "avid": 4417,
      "ĠintÃ©rÃªt": 4418,
      "ĠdÃ©mon": 4419,
      "ĠvoÃ»te": 4420,
      "orer": 4421,
      "Ġ14": 4422,
      "Ġ15": 4423,
      "Ġpleure": 4424,
      "Ġvision": 4425,
      "ĠpoÃ©sie": 4426,
      "Ġsalu": 4427,
      "ĠrestÃ©": 4428,
      "Ġarriva": 4429,
      "ĠarrivÃ©": 4430,
      "Ġinconn": 4431,
      "Ġdescend": 4432,
      "Ġcabaret": 4433,
      "ersey": 4434,
      "ptembre": 4435,
      "Ġpoursuivit": 4436,
      "Ġchamps": 4437,
      "ĠmoitiÃ©": 4438,
      "Deux": 4439,
      "cond": 4440,
      "tt": 4441,
      "Ġligne": 4442,
      "Ġmanteau": 4443,
      "Ġforte": 4444,
      "ribles": 4445,
      "ÃªtÃ©": 4446,
      "Ġchim": 4447,
      "union": 4448,
      "oise": 4449,
      "Ġvoila": 4450,
      "Ġentour": 4451,
      "ouvertes": 4452,
      "Ã©die": 4453,
      "iquer": 4454,
      "erez": 4455,
      "ington": 4456,
      "Ġnuage": 4457,
      "ĠXIV": 4458,
      "Ġvagues": 4459,
      "Ġlarmes": 4460,
      "Pendant": 4461,
      "gique": 4462,
      "naires": 4463,
      "pent": 4464,
      "pal": 4465,
      "Ġsourd": 4466,
      "ernes": 4467,
      "issez": 4468,
      "Ġfasse": 4469,
      "Ġrendu": 4470,
      "atin": 4471,
      "Ġjau": 4472,
      "Ġjur": 4473,
      "Ġreb": 4474,
      "Ġchat": 4475,
      "Ġchien": 4476,
      "ouvent": 4477,
      "Ġbrave": 4478,
      "Ġdevenir": 4479,
      "Ã©criv": 4480,
      "Ġconser": 4481,
      "Ġpoints": 4482,
      "Ġattent": 4483,
      "Ġterreur": 4484,
      "Ġsaisit": 4485,
      "Ġverite": 4486,
      "ĠÃ©clai": 4487,
      "Ġcomprendre": 4488,
      "Ġopin": 4489,
      "Ġprovidence": 4490,
      "ThÃ©nardier": 4491,
      "holm": 4492,
      "TRE": 4493,
      "ban": 4494,
      "co": 4495,
      "ni": 4496,
      "non": 4497,
      "Ġlim": 4498,
      "Ġloint": 4499,
      "aim": 4500,
      "ĠcÃ©l": 4501,
      "anvier": 4502,
      "Ġmaud": 4503,
      "ative": 4504,
      "user": 4505,
      "Ġjolie": 4506,
      "Ġparlement": 4507,
      "Ġhard": 4508,
      "Ġtroubl": 4509,
      "onnet": 4510,
      "onnerre": 4511,
      "oncÃ©": 4512,
      "Ġtomba": 4513,
      "Ġadress": 4514,
      "ĠobÃ©": 4515,
      "Ġempereur": 4516,
      "Char": 4517,
      "royable": 4518,
      "ĠÃ©vÃªque": 4519,
      "Ġinconnu": 4520,
      "Ġtoile": 4521,
      "Ġphilosophie": 4522,
      "Ġvaguement": 4523,
      "Ġcaval": 4524,
      "ĠtempÃªte": 4525,
      "Ġfrancais": 4526,
      "Ġpairs": 4527,
      "Ġfaudrait": 4528,
      "ĠmÃ©decin": 4529,
      "AG": 4530,
      "IE": 4531,
      "Javert": 4532,
      "cad": 4533,
      "joute": 4534,
      "mit": 4535,
      "sion": 4536,
      "Ġ9": 4537,
      "Ġdign": 4538,
      "Ã©bre": 4539,
      "ĠfrÃ©m": 4540,
      "Ġtire": 4541,
      "Ġnid": 4542,
      "Ġbonnes": 4543,
      "Ġrass": 4544,
      "Ġlesquelles": 4545,
      "usÃ©": 4546,
      "dement": 4547,
      "Ġhonneur": 4548,
      "ĠtrÃ´ne": 4549,
      "ott": 4550,
      "issante": 4551,
      "Ġseront": 4552,
      "ĠNic": 4553,
      "Ġcourage": 4554,
      "Ġallum": 4555,
      "ĠChamp": 4556,
      "Ġposs": 4557,
      "ĠdÃ©sert": 4558,
      "Ġpersonnes": 4559,
      "Ġsouffre": 4560,
      "Ġsociale": 4561,
      "ĠdÃ©tr": 4562,
      "ĠXV": 4563,
      "rontheim": 4564,
      "Ġfatale": 4565,
      "Ġchefs": 4566,
      "Ã©clair": 4567,
      "azur": 4568,
      "Ġmonstrueux": 4569,
      "AS": 4570,
      "Ici": 4571,
      "Ã©ros": 4572,
      "aimer": 4573,
      "eth": 4574,
      "Ġame": 4575,
      "Ġbo": 4576,
      "Ġhauteur": 4577,
      "Ġplaine": 4578,
      "ambres": 4579,
      "siÃ¨": 4580,
      "issance": 4581,
      "Ġrespec": 4582,
      "ĠQuelle": 4583,
      "Ġjusque": 4584,
      "Ġvenez": 4585,
      "assez": 4586,
      "Ġsortes": 4587,
      "Ġregardant": 4588,
      "ĠdÃ©sormais": 4589,
      "chevÃªque": 4590,
      "),": 4591,
      "yl": 4592,
      "Ġlant": 4593,
      "aide": 4594,
      "Ġcul": 4595,
      "Ġmun": 4596,
      "omie": 4597,
      "Ġrive": 4598,
      "alis": 4599,
      "autant": 4600,
      "Ġmalade": 4601,
      "Ġpleins": 4602,
      "Ġsuivre": 4603,
      "iziÃ¨me": 4604,
      "Ġcurieux": 4605,
      "Ġcontraire": 4606,
      "ckholm": 4607,
      "Ġimmobile": 4608,
      "Br": 4609,
      "jets": 4610,
      "oÃ«": 4611,
      "uvre": 4612,
      "Ġdois": 4613,
      "ĠpÃ©r": 4614,
      "Ġcoi": 4615,
      "Ġmasse": 4616,
      "entr": 4617,
      "Ã¨tes": 4618,
      "Ġdessus": 4619,
      "ription": 4620,
      "ĠMal": 4621,
      "ĠPal": 4622,
      "Ġinsur": 4623,
      "impos": 4624,
      "ompagn": 4625,
      "Ġaband": 4626,
      "Ġimport": 4627,
      "Ġange": 4628,
      "ĠprÃ©cis": 4629,
      "ennyb": 4630,
      "Ġfaubourg": 4631,
      "ennybol": 4632,
      "Pas": 4633,
      "Rien": 4634,
      "hak": 4635,
      "rue": 4636,
      "ueur": 4637,
      "votre": 4638,
      "teign": 4639,
      "nel": 4640,
      "Ġrum": 4641,
      "Ġromp": 4642,
      "oient": 4643,
      "chancelier": 4644,
      "agon": 4645,
      "Ã¢ne": 4646,
      "ocÃ©an": 4647,
      "Ġperdre": 4648,
      "poser": 4649,
      "Ġparlant": 4650,
      "Ġmilitaire": 4651,
      "prime": 4652,
      "Ġvainqu": 4653,
      "faisait": 4654,
      "ĠlÃ¨vres": 4655,
      "Toute": 4656,
      "jug": 4657,
      "Ĭtre": 4658,
      "Ã©ra": 4659,
      "Ġsoyez": 4660,
      "Ġcass": 4661,
      "Ġfid": 4662,
      "Ãªch": 4663,
      "ĠÃ©tud": 4664,
      "ĠJosiane": 4665,
      "Ġprotest": 4666,
      "ĠAuc": 4667,
      "erreur": 4668,
      "desc": 4669,
      "Ġcoupe": 4670,
      "rosse": 4671,
      "Ġlaissa": 4672,
      "volution": 4673,
      "Ġsilen": 4674,
      "Ġgrosses": 4675,
      "Ġcontinue": 4676,
      "Ġretomb": 4677,
      "Ġmitrai": 4678,
      "ĠCharlemagne": 4679,
      "ĠappelÃ©": 4680,
      "Ġvolontiers": 4681,
      "Ġvaincu": 4682,
      "ĠÃ©vÃ©nements": 4683,
      "Ġcercueil": 4684,
      "ĠMayence": 4685,
      "Homme": 4686,
      "Voici": 4687,
      "dern": 4688,
      "Ã¼": 4689,
      "Ġpau": 4690,
      "Ġdet": 4691,
      "Ġmeu": 4692,
      "Ġverre": 4693,
      "Ġtendre": 4694,
      "Ġdessous": 4695,
      "riche": 4696,
      "iences": 4697,
      "ost": 4698,
      "ouvrir": 4699,
      "ĠSol": 4700,
      "ĠSpiagudry": 4701,
      "airement": 4702,
      "Ã¢mes": 4703,
      "ĠAlle": 4704,
      "cif": 4705,
      "adress": 4706,
      "Ã®te": 4707,
      "ifier": 4708,
      "Ġvenaient": 4709,
      "Ġcoupable": 4710,
      "Ġcommune": 4711,
      "Ġeffar": 4712,
      "duc": 4713,
      "Ġboue": 4714,
      "Ã©chaf": 4715,
      "Ġchevalier": 4716,
      "charlie": 4717,
      "rÃ©mitÃ©": 4718,
      "ĠsÃ©nat": 4719,
      "ividu": 4720,
      "Ã©chafaud": 4721,
      "Aux": 4722,
      "TA": 4723,
      "US": 4724,
      "grande": 4725,
      "nature": 4726,
      "Ã±": 4727,
      "Ġ.": 4728,
      "Ġcardin": 4729,
      "ancharlie": 4730,
      "Ġvot": 4731,
      "Ġtim": 4732,
      "ications": 4733,
      "Ġprojet": 4734,
      "iÃ¨vre": 4735,
      "Ġacte": 4736,
      "Ġdiri": 4737,
      "Ġpresence": 4738,
      "Ġbarb": 4739,
      "rase": 4740,
      "Ġrappelle": 4741,
      "uernes": 4742,
      "ĠBarkilphedro": 4743,
      "voyait": 4744,
      "Ġsoupir": 4745,
      "Ġcadavres": 4746,
      "uissier": 4747,
      "Ġabsolument": 4748,
      "idÃ©al": 4749,
      "Pro": 4750,
      "Plus": 4751,
      "nu": 4752,
      "oge": 4753,
      "rut": 4754,
      "enus": 4755,
      "aites": 4756,
      "isons": 4757,
      "Ġvari": 4758,
      "itait": 4759,
      "inet": 4760,
      "Ġchans": 4761,
      "ague": 4762,
      "ouvante": 4763,
      "Ġprune": 4764,
      "six": 4765,
      "Ã¢ge": 4766,
      "ĠdeuxiÃ¨me": 4767,
      "itement": 4768,
      "Ã´mes": 4769,
      "igneurs": 4770,
      "Ġtouche": 4771,
      "Ġpresident": 4772,
      "Ġtourne": 4773,
      "Ġconfiance": 4774,
      "Ġdistinc": 4775,
      "ĠfaÃ§ade": 4776,
      "ĠarrÃªt": 4777,
      "Ġlogis": 4778,
      "Assemblee": 4779,
      ".,": 4780,
      "soci": 4781,
      "Ġsage": 4782,
      "Ġdel": 4783,
      "Ġfall": 4784,
      "oration": 4785,
      "Ġrad": 4786,
      "Ġlesquels": 4787,
      "Ġsere": 4788,
      "ĠMoi": 4789,
      "ĠÃ©glise": 4790,
      "acles": 4791,
      "ĠPologne": 4792,
      "onniers": 4793,
      "illÃ©": 4794,
      "Ã§ons": 4795,
      "Ġexamin": 4796,
      "aissant": 4797,
      "ignÃ©": 4798,
      "Ġferait": 4799,
      "ograp": 4800,
      "clin": 4801,
      "Ġ182": 4802,
      "Ġdroits": 4803,
      "Ġsolitude": 4804,
      "Ġvouloir": 4805,
      "ussion": 4806,
      "Ġnuages": 4807,
      "Ġdifficile": 4808,
      "TION": 4809,
      "ĠcommenÃ§ait": 4810,
      "Ġbaiser": 4811,
      "Ġtitre": 4812,
      "Ġoblig": 4813,
      "Son": 4814,
      "pti": 4815,
      "xi": 4816,
      "Ġcache": 4817,
      "Ġtig": 4818,
      "Ġnot": 4819,
      "Ġchante": 4820,
      "aperce": 4821,
      "Ġsonger": 4822,
      "ĠPro": 4823,
      "illement": 4824,
      "ulti": 4825,
      "ĠGrand": 4826,
      "ĠNor": 4827,
      "Ġdissi": 4828,
      "Ġexcep": 4829,
      "Ġmarchait": 4830,
      "Ġvoile": 4831,
      "Ã©dÃ©": 4832,
      "ĠrÃ©pand": 4833,
      "ĠtombÃ©": 4834,
      "Ġtravaille": 4835,
      "ĠÃ©per": 4836,
      "ĠÃ©pouvant": 4837,
      "Ġremit": 4838,
      "ambes": 4839,
      "Ġruines": 4840,
      "Ġfatal": 4841,
      "Ġchapelle": 4842,
      "assemblÃ©e": 4843,
      "Ġrochers": 4844,
      "humanite": 4845,
      "Ġtheatres": 4846,
      "autoritÃ©": 4847,
      "Ġdiverses": 4848,
      "ĠmÃ©moire": 4849,
      "ĠforÃ§at": 4850,
      "Am": 4851,
      "Nap": 4852,
      "mble": 4853,
      "vÃ©e": 4854,
      "Ġel": 4855,
      "Ġlaid": 4856,
      "ennent": 4857,
      "Ġpist": 4858,
      "orges": 4859,
      "ĠhÃ´": 4860,
      "Ġproie": 4861,
      "Ġinutile": 4862,
      "oiseau": 4863,
      "ĠdÃ©clar": 4864,
      "ĠEs": 4865,
      "illages": 4866,
      "Ġdemeure": 4867,
      "atement": 4868,
      "Ġtrouva": 4869,
      "Ġfeuilles": 4870,
      "ĠmÃªle": 4871,
      "ussie": 4872,
      "ĠWaterloo": 4873,
      "Ġcomplet": 4874,
      "Ġembr": 4875,
      "Ġsongeait": 4876,
      "Ġcachot": 4877,
      "ĠdÃ©lic": 4878,
      "elez": 4879,
      "Ġ1830": 4880,
      "Ġgeneral": 4881,
      "Ġidees": 4882,
      "Ġcerveau": 4883,
      "Ġplafond": 4884,
      "Pr": 4885,
      "Tres": 4886,
      "Votre": 4887,
      "nouv": 4888,
      "ssent": 4889,
      "Ġ5": 4890,
      "Ġdirait": 4891,
      "enons": 4892,
      "Ġcra": 4893,
      "Ġcouleur": 4894,
      "Ġmettait": 4895,
      "Ġveulent": 4896,
      "antique": 4897,
      "atures": 4898,
      "Ã¨nes": 4899,
      "Ġjal": 4900,
      "Ġensuite": 4901,
      "Ãªques": 4902,
      "Ġhal": 4903,
      "Ġremp": 4904,
      "outh": 4905,
      "endroit": 4906,
      "ĠMol": 4907,
      "prÃ©sent": 4908,
      "assent": 4909,
      "Ġmatel": 4910,
      "Ġpresent": 4911,
      "Ġtourb": 4912,
      "aillir": 4913,
      "Ã©vanou": 4914,
      "Ġsolenne": 4915,
      "Enjolras": 4916,
      "consc": 4917,
      "ĊĊĠĠĠĠĠĠĠĠĠĠĠĠĠĠĠ": 4918,
      "Ġfaibles": 4919,
      "ĠsuccÃ¨s": 4920,
      "Ġbless": 4921,
      "Ġbizarre": 4922,
      "Ġremercie": 4923,
      "Ph": 4924,
      "Sa": 4925,
      "].": 4926,
      "quand": 4927,
      "Ġbi": 4928,
      "Ġrace": 4929,
      "uivre": 4930,
      "Ġsurprise": 4931,
      "Ã´tre": 4932,
      "Ġfrais": 4933,
      "Ġtombait": 4934,
      "Ġlaissait": 4935,
      "Ġcoucher": 4936,
      "Depuis": 4937,
      "contin": 4938,
      "piration": 4939,
      "Ġproscrits": 4940,
      "Ġlarges": 4941,
      "insurrection": 4942,
      "uernesey": 4943,
      "yeux": 4944,
      "arm": 4945,
      "arbre": 4946,
      "Ġvel": 4947,
      "Ġtaille": 4948,
      "aura": 4949,
      "Ġhur": 4950,
      "Ġseptembre": 4951,
      "rances": 4952,
      "Ġnez": 4953,
      "ĠPl": 4954,
      "chemin": 4955,
      "ĠSainte": 4956,
      "Ġcomtesse": 4957,
      "onnez": 4958,
      "late": 4959,
      "ords": 4960,
      "Ġregret": 4961,
      "Ġpermis": 4962,
      "Ã©ph": 4963,
      "Ġabout": 4964,
      "ĠimpÃ©ri": 4965,
      "Ġdouceur": 4966,
      "Ġpouvez": 4967,
      "Ġsecours": 4968,
      "Ġlongues": 4969,
      "accord": 4970,
      "Ġpatri": 4971,
      "ĠscÃ¨ne": 4972,
      "Ġlumine": 4973,
      "ultat": 4974,
      "Ġroyale": 4975,
      "ouillÃ©": 4976,
      "Ġcroyez": 4977,
      "Ahlef": 4978,
      "Ġlorsque": 4979,
      "Ġanglaise": 4980,
      "travers": 4981,
      "ĠsÃ©par": 4982,
      "Ġennemis": 4983,
      "Ġsimplement": 4984,
      "Ahlefeld": 4985,
      "?Â»": 4986,
      "OS": 4987,
      "gÃ©s": 4988,
      "hÃ©ri": 4989,
      "lam": 4990,
      "roule": 4991,
      "Ġcelles": 4992,
      "euvres": 4993,
      "orite": 4994,
      "ĠbontÃ©": 4995,
      "irg": 4996,
      "amnistie": 4997,
      "oirs": 4998,
      "iditÃ©": 4999,
      "appui": 5000,
      "Ġcommand": 5001,
      "ailli": 5002,
      "Ġadresse": 5003,
      "arer": 5004,
      "ĠempÃª": 5005,
      "Ġconnu": 5006,
      "ĠdiffÃ©r": 5007,
      "Ġpromen": 5008,
      "Ġmurmura": 5009,
      "Ġparticulier": 5010,
      "Ġcatastrop": 5011,
      "_!": 5012,
      "nier": 5013,
      "yp": 5014,
      "Ġer": 5015,
      "Ġais": 5016,
      "Ġlieux": 5017,
      "Ġpant": 5018,
      "Ġpage": 5019,
      "Ġpoids": 5020,
      "Ġast": 5021,
      "Ġqual": 5022,
      "neuf": 5023,
      "Ġnoires": 5024,
      "Ġparv": 5025,
      "accep": 5026,
      "ĠDavid": 5027,
      "Ġprote": 5028,
      "Ġaspect": 5029,
      "obe": 5030,
      "ĠallÃ©": 5031,
      "Ġsortie": 5032,
      "Ġguillot": 5033,
      "ĊĠĠĠĠĠĠĠĠĠĠĠ": 5034,
      "ĠsupÃ©ri": 5035,
      "ausse": 5036,
      "aussi": 5037,
      "ĠÃ©gal": 5038,
      "Ġcondamne": 5039,
      "Ġroman": 5040,
      "Ġmariage": 5041,
      "riboulet": 5042,
      "Ġracont": 5043,
      "Ġtyran": 5044,
      "HÃ©las": 5045,
      "ajout": 5046,
      "cent": 5047,
      "ĠdelÃł": 5048,
      "Ġquator": 5049,
      "aude": 5050,
      "Ġge": 5051,
      "ĠSt": 5052,
      "Ġbrill": 5053,
      "angl": 5054,
      "exist": 5055,
      "Ġbonhomme": 5056,
      "Ġnuits": 5057,
      "ĠcÃ´te": 5058,
      "argot": 5059,
      "accompl": 5060,
      "conf": 5061,
      "Ġconnais": 5062,
      "Ġhabitu": 5063,
      "Ġmasque": 5064,
      "Ġfusil": 5065,
      "Ġbranches": 5066,
      "Ġsympath": 5067,
      ";--": 5068,
      "Moi": 5069,
      "but": 5070,
      "dÃ©c": 5071,
      "gouverne": 5072,
      "pay": 5073,
      "Ġ6": 5074,
      "Ġcaus": 5075,
      "arne": 5076,
      "Ġtirer": 5077,
      "Ġetaient": 5078,
      "Ġjanvier": 5079,
      "Ġgouver": 5080,
      "Ġparfaite": 5081,
      "ĠhÃ©las": 5082,
      "Ġchasse": 5083,
      "ĠCÃ©sar": 5084,
      "Ġnecess": 5085,
      "ĠPendant": 5086,
      "ĠPierre": 5087,
      "ĠSeulement": 5088,
      "ĠVotre": 5089,
      "irez": 5090,
      "Ġgranit": 5091,
      "ĠLeblanc": 5092,
      "Ġsorti": 5093,
      "Ġpremiere": 5094,
      "Ġbarbar": 5095,
      "ĠÃ©pÃ©e": 5096,
      "Ġheureuse": 5097,
      "Ġlaissant": 5098,
      "ĠrÃ©pondre": 5099,
      "Ġouvrit": 5100,
      "Ġlieues": 5101,
      "Ġroug": 5102,
      "Ġarrivait": 5103,
      "ettent": 5104,
      "Ġcanons": 5105,
      "atriÃ¨me": 5106,
      "Ġgoutte": 5107,
      "Ġgibet": 5108,
      "mÃªle": 5109,
      "ĠdÃ®": 5110,
      "Ġpousse": 5111,
      "Ġmous": 5112,
      "asque": 5113,
      "Ġrage": 5114,
      "Ã©tant": 5115,
      "Ġgre": 5116,
      "Ġchoc": 5117,
      "Ġinsc": 5118,
      "adresse": 5119,
      "Ġquels": 5120,
      "Ġard": 5121,
      "rÃ©g": 5122,
      "Ġconsol": 5123,
      "exÃ©c": 5124,
      "Ġregards": 5125,
      "Ãīc": 5126,
      "clave": 5127,
      "Ġrevint": 5128,
      "ĠEnfin": 5129,
      "Ġreferm": 5130,
      "Ġmasure": 5131,
      "Ġretourna": 5132,
      "Ġpointe": 5133,
      "Ġfauteuil": 5134,
      "Ġpopulaire": 5135,
      "Ġtheatre": 5136,
      "Ã©tude": 5137,
      "Ġrentrer": 5138,
      "Ġsagesse": 5139,
      "Ġtumulte": 5140,
      "ĠsÃ©pulcre": 5141,
      "Ġailleurs": 5142,
      "Vive": 5143,
      "diff": 5144,
      "oe": 5145,
      "raire": 5146,
      "innoc": 5147,
      "orc": 5148,
      "aurai": 5149,
      "Ġduchesse": 5150,
      "ĠhÃ©ros": 5151,
      "ĠCH": 5152,
      "Ã©sus": 5153,
      "Ġeg": 5154,
      "andre": 5155,
      "ĠAd": 5156,
      "idÃ©es": 5157,
      "ĠrÃ©alitÃ©": 5158,
      "ĠRussie": 5159,
      "Ġmars": 5160,
      "ĠaimÃ©": 5161,
      "Ġcrie": 5162,
      "Ġtravaux": 5163,
      "Ġsentir": 5164,
      "Ġmange": 5165,
      "Ġaffaires": 5166,
      "Ġseuls": 5167,
      "Ġprofondeurs": 5168,
      "Ġcomprend": 5169,
      "ĠrÃªv": 5170,
      "Ġpuissant": 5171,
      "ĠmÃªlÃ©e": 5172,
      "Ġcurios": 5173,
      "Ġphilosophe": 5174,
      "ĠdÃ©sespoir": 5175,
      "ĠsÃ©rieux": 5176,
      "Ġdimin": 5177,
      "siÃ¨cle": 5178,
      "CE": 5179,
      "LAU": 5180,
      "da": 5181,
      "dÅĵ": 5182,
      "fer": 5183,
      "ferme": 5184,
      "loire": 5185,
      "Ġdiss": 5186,
      "Ġloy": 5187,
      "Ġsoin": 5188,
      "relle": 5189,
      "ĠfraÃ®": 5190,
      "ita": 5191,
      "ĠbÃªtes": 5192,
      "usdÅĵ": 5193,
      "Ã©tend": 5194,
      "irÃ©": 5195,
      "ĠEurope": 5196,
      "Ġmere": 5197,
      "auvre": 5198,
      "Ġcler": 5199,
      "Ġcommerce": 5200,
      "Ġpartis": 5201,
      "Ġposa": 5202,
      "Ġposte": 5203,
      "Ġvisite": 5204,
      "prof": 5205,
      "ĠconnaÃ®t": 5206,
      "ĠcomplÃ¨te": 5207,
      "primer": 5208,
      "oubli": 5209,
      "compl": 5210,
      "Ġsouvenirs": 5211,
      "Ġsingulier": 5212,
      "Ġprolonge": 5213,
      "ĠhonnÃªte": 5214,
      "usdÅĵmon": 5215,
      "Allons": 5216,
      "can": 5217,
      "jou": 5218,
      "juste": 5219,
      "arriÃ¨re": 5220,
      "ilÃ©": 5221,
      "Ġvice": 5222,
      "Ġheur": 5223,
      "ĠCelui": 5224,
      "abeuf": 5225,
      "ĠMag": 5226,
      "icule": 5227,
      "prÃ©s": 5228,
      "Ã¢ch": 5229,
      "ĠAvec": 5230,
      "ulg": 5231,
      "ulaire": 5232,
      "Ġmonseigneur": 5233,
      "Ġdevint": 5234,
      "ĠHÃ©las": 5235,
      "Ġgrac": 5236,
      "Ġaction": 5237,
      "evant": 5238,
      "artin": 5239,
      "profond": 5240,
      "arrÃªte": 5241,
      "Ġnouvelles": 5242,
      "ossuet": 5243,
      "Ġarriver": 5244,
      "Ġmorne": 5245,
      "officier": 5246,
      "ĠtÃ©nÃ©bre": 5247,
      "Ġoccasion": 5248,
      "Ġpareille": 5249,
      "Ġdoivent": 5250,
      "ĠClancharlie": 5251,
      "aussÃ©e": 5252,
      "Ġ1848": 5253,
      "Ġdoigts": 5254,
      "ĠmÃ©chant": 5255,
      "ĠlittÃ©raire": 5256,
      "ĠMunckholm": 5257,
      "Gr": 5258,
      "Ou": 5259,
      "Ġ8": 5260,
      "Ġis": 5261,
      "ĠlÃ¨ve": 5262,
      "Ġpois": 5263,
      "ouÃ¯": 5264,
      "Ġcave": 5265,
      "Ġnue": 5266,
      "Ġnul": 5267,
      "ĠbientÃ´t": 5268,
      "alors": 5269,
      "ĠhÃ©s": 5270,
      "ĠPetit": 5271,
      "Quelle": 5272,
      "Ã©rant": 5273,
      "trouv": 5274,
      "Ġpassions": 5275,
      "ensemble": 5276,
      "Ġautrefois": 5277,
      "Ġlitter": 5278,
      "ussent": 5279,
      "ĠQuelques": 5280,
      "Ġfixe": 5281,
      "flÃ©ch": 5282,
      "Ġtournant": 5283,
      "Ġblanches": 5284,
      "ĠtÃ©moin": 5285,
      "Ġprincipes": 5286,
      "neuviÃ¨me": 5287,
      "nom": 5288,
      "pon": 5289,
      "roul": 5290,
      "voul": 5291,
      "Ġdam": 5292,
      "Ġloc": 5293,
      "aix": 5294,
      "ĠpÃ©t": 5295,
      "Ġpages": 5296,
      "oug": 5297,
      "entends": 5298,
      "tell": 5299,
      "ĠvÃªte": 5300,
      "iti": 5301,
      "Ġlevant": 5302,
      "Ġhache": 5303,
      "ĠCon": 5304,
      "ĠCeci": 5305,
      "ĠÃ©tinc": 5306,
      "ouvrait": 5307,
      "ĠPort": 5308,
      "prend": 5309,
      "oind": 5310,
      "ĠAux": 5311,
      "ĠrÃ©un": 5312,
      "enses": 5313,
      "Ã©poque": 5314,
      "Ġtourner": 5315,
      "aillon": 5316,
      "Ġpoete": 5317,
      "Ġpaysan": 5318,
      "Ġpatron": 5319,
      "Ġindiqu": 5320,
      "industrie": 5321,
      "Ġcertes": 5322,
      "huitiÃ¨me": 5323,
      "ĠrÃ©pÃ©ta": 5324,
      "Ġpersonnage": 5325,
      "Ġchandelle": 5326,
      "ed": 5327,
      "nasse": 5328,
      "ov": 5329,
      "oÃ¯": 5330,
      "pire": 5331,
      "sal": 5332,
      "Ġ7": 5333,
      "Ġdouleurs": 5334,
      "Ġpeau": 5335,
      "ĠcitÃ©": 5336,
      "Ġnoct": 5337,
      "Ġbate": 5338,
      "atiques": 5339,
      "Ġgai": 5340,
      "avance": 5341,
      "ĠÃ©par": 5342,
      "ĠDrontheim": 5343,
      "cide": 5344,
      "rade": 5345,
      "Ġquelconque": 5346,
      "ĠarmÃ©e": 5347,
      "Ġsergent": 5348,
      "Ġcommis": 5349,
      "ĠcarrÃ©": 5350,
      "Ġaccent": 5351,
      "finit": 5352,
      "Ġderniers": 5353,
      "ĠÃ©videmment": 5354,
      "ĠcrÃ©ation": 5355,
      "instruction": 5356,
      "Ġlegis": 5357,
      "teindre": 5358,
      "primable": 5359,
      "Ġmandat": 5360,
      "Ġcoiff": 5361,
      "Ã±a": 5362,
      "hÃ©riff": 5363,
      "Bar": 5364,
      "IER": 5365,
      "bonne": 5366,
      "cou": 5367,
      "dÃ©t": 5368,
      "form": 5369,
      "Ġdort": 5370,
      "Ã©les": 5371,
      "Ġpais": 5372,
      "Ġcours": 5373,
      "leg": 5374,
      "Ġmi": 5375,
      "ision": 5376,
      "Ġtonnerre": 5377,
      "Ġbuv": 5378,
      "Ġruisse": 5379,
      "Ã©tranger": 5380,
      "Ġdespot": 5381,
      "Ġavril": 5382,
      "ĠCologne": 5383,
      "Ġprends": 5384,
      "ider": 5385,
      "ĠentiÃ¨re": 5386,
      "Ġbrise": 5387,
      "ĠRÃ©p": 5388,
      "tras": 5389,
      "Ġgren": 5390,
      "Ġperru": 5391,
      "obst": 5392,
      "ĠChrist": 5393,
      "grav": 5394,
      "espoir": 5395,
      "yste": 5396,
      "Ġrayonnement": 5397,
      "affaire": 5398,
      "Ġecl": 5399,
      "instinct": 5400,
      "Ġdescendre": 5401,
      "ennemi": 5402,
      "Ġgardes": 5403,
      "eloppe": 5404,
      "Ġretrouver": 5405,
      "Ġendroit": 5406,
      "mercy": 5407,
      "ĠBelgique": 5408,
      "Ġcensure": 5409,
      "ultipl": 5410,
      "jure": 5411,
      "rages": 5412,
      "terre": 5413,
      "enise": 5414,
      "onze": 5415,
      "ertÃ©": 5416,
      "itant": 5417,
      "Ġut": 5418,
      "ĠnÃ©": 5419,
      "Ġberce": 5420,
      "ĠĠĠĠĠ": 5421,
      "Ġparadis": 5422,
      "ĠComm": 5423,
      "Ġplat": 5424,
      "Ġprenez": 5425,
      "ortun": 5426,
      "ĠSc": 5427,
      "parnasse": 5428,
      "Ġapplaudissements": 5429,
      "Ġmaint": 5430,
      "expl": 5431,
      "Ġtourment": 5432,
      "Ã©rique": 5433,
      "Ġattach": 5434,
      "ĠpensÃ©es": 5435,
      "Ġcorrid": 5436,
      "Ġtermes": 5437,
      "Ġvoulons": 5438,
      "Ġlieutenant": 5439,
      "archite": 5440,
      "Ġriches": 5441,
      "Ġquitter": 5442,
      "ignorance": 5443,
      "ĠcimetiÃ¨re": 5444,
      "Ġmunici": 5445,
      "Ġcardinal": 5446,
      "huissier": 5447,
      "rac": 5448,
      "rement": 5449,
      "Ġcacher": 5450,
      "erci": 5451,
      "arbres": 5452,
      "intÃ©rÃªt": 5453,
      "Ġbu": 5454,
      "estre": 5455,
      "Ġgeste": 5456,
      "Ġaurez": 5457,
      "Ġduquel": 5458,
      "Ġchambres": 5459,
      "ĠCons": 5460,
      "rante": 5461,
      "ĠBab": 5462,
      "Ã®le": 5463,
      "ĠHe": 5464,
      "ĠfrÃ¨res": 5465,
      "ignation": 5466,
      "ibal": 5467,
      "Ġaim": 5468,
      "Ġaide": 5469,
      "Ġcrier": 5470,
      "Ġdonna": 5471,
      "Ġrevient": 5472,
      "Ġpayer": 5473,
      "Ġbouches": 5474,
      "Ġfinit": 5475,
      "Ġrouges": 5476,
      "faits": 5477,
      "Ġparlez": 5478,
      "Ġhorreur": 5479,
      "Ġdiscussion": 5480,
      "maj": 5481,
      "ĠKennybol": 5482,
      "ĠSeine": 5483,
      "ĠoubliÃ©": 5484,
      "Ġgraves": 5485,
      "Ġfrancaise": 5486,
      "femme": 5487,
      "echafaud": 5488,
      "iale": 5489,
      "jamais": 5490,
      "oÃ±a": 5491,
      "vel": 5492,
      "enis": 5493,
      "Ġcand": 5494,
      "quette": 5495,
      "Ġfoss": 5496,
      "Ġtira": 5497,
      "Ġnau": 5498,
      "aspect": 5499,
      "Ġride": 5500,
      "Ġavert": 5501,
      "Ġparfum": 5502,
      "icitÃ©": 5503,
      "Ġapplaud": 5504,
      "oph": 5505,
      "Ġexec": 5506,
      "ĠÃ©cras": 5507,
      "Ġassemblee": 5508,
      "Ġattendre": 5509,
      "Ġguet": 5510,
      "Ġlibres": 5511,
      "Ġsaisi": 5512,
      "Ġsouffrance": 5513,
      "espÃ©rance": 5514,
      "Ġriant": 5515,
      "Ġsacrif": 5516,
      "affir": 5517,
      "Ġrenvers": 5518,
      "Ġgarder": 5519,
      "Quelque": 5520,
      "Ġtoits": 5521,
      "ĠcrÃ©puscule": 5522,
      "hakespe": 5523,
      "Ġguillotine": 5524,
      "LAUDE": 5525,
      "Avec": 5526,
      "MB": 5527,
      "Sensation": 5528,
      "cert": 5529,
      "hier": 5530,
      "ow": 5531,
      "voit": 5532,
      "xe": 5533,
      "xte": 5534,
      "ĠY": 5535,
      "Ġpoudre": 5536,
      "Ġcendre": 5537,
      "Ġcah": 5538,
      "ark": 5539,
      "Ġfab": 5540,
      "Ġtur": 5541,
      "inv": 5542,
      "auff": 5543,
      "Ġunique": 5544,
      "Ġautor": 5545,
      "aveu": 5546,
      "ĠCLAUDE": 5547,
      "ospit": 5548,
      "prin": 5549,
      "Ġcompt": 5550,
      "ombr": 5551,
      "ĠrÃ©d": 5552,
      "paravant": 5553,
      "ĠGul": 5554,
      "apport": 5555,
      "Ġconqu": 5556,
      "Ġperc": 5557,
      "Ġcommission": 5558,
      "tueux": 5559,
      "Ġcaract": 5560,
      "Ġvoyons": 5561,
      "ĠEntre": 5562,
      "ĠIer": 5563,
      "Ġpaysans": 5564,
      "effroi": 5565,
      "ermain": 5566,
      "Ġbourg": 5567,
      "ĠdÃ©tails": 5568,
      "Ġrepris": 5569,
      "Toutes": 5570,
      "astille": 5571,
      "eferre": 5572,
      "ĠÃ©galement": 5573,
      "Ġclocher": 5574,
      "Ġmeurtre": 5575,
      "oureuse": 5576,
      "Ġmagistr": 5577,
      "ĠaperÃ§ut": 5578,
      "Ġressemblait": 5579,
      "Ġsplendide": 5580,
      "Ġraisons": 5581,
      "Ġcamar": 5582,
      "housiasme": 5583,
      "Ġmitraille": 5584,
      "hakespeare": 5585,
      "mur": 5586,
      "Ġdresse": 5587,
      "ĠpriÃ¨re": 5588,
      "ouille": 5589,
      "ĠshÃ©riff": 5590,
      "ina": 5591,
      "inait": 5592,
      "ourde": 5593,
      "aste": 5594,
      "Ġjambes": 5595,
      "Ġgamin": 5596,
      "ĠLor": 5597,
      "Ġplis": 5598,
      "absol": 5599,
      "ĠJersey": 5600,
      "ottes": 5601,
      "ĠAussi": 5602,
      "Ġdevenue": 5603,
      "Ġcontient": 5604,
      "Ġmart": 5605,
      "ification": 5606,
      "oleon": 5607,
      "ĠmalgrÃ©": 5608,
      "Ġtoucher": 5609,
      "evrier": 5610,
      "aillit": 5611,
      "Ġpleurs": 5612,
      "Ġpein": 5613,
      "Ġpeint": 5614,
      "Ġpensa": 5615,
      "Ġpenser": 5616,
      "Ġsolitaire": 5617,
      "Ġsecou": 5618,
      "Ġremont": 5619,
      "Ġsavent": 5620,
      "Ã©chapp": 5621,
      "espace": 5622,
      "Ġroues": 5623,
      "ĠdÃ©tour": 5624,
      "Ġappart": 5625,
      "ĠÃ©lÃ©g": 5626,
      "Ġcloche": 5627,
      "Ġprix": 5628,
      "ĠarrÃªtÃ©": 5629,
      "justice": 5630,
      "Ġdonjon": 5631,
      "Ġfraternite": 5632,
      "Ġmisere": 5633,
      "Ġenseigne": 5634,
      "ĠpoussiÃ¨re": 5635,
      "aucun": 5636,
      "Autriche": 5637,
      "Ġtribunal": 5638,
      "ouragan": 5639,
      "Tiens": 5640,
      "fig": 5641,
      "monde": 5642,
      "Ġdil": 5643,
      "enÃ©": 5644,
      "Ġvents": 5645,
      "ĠvÃ©rit": 5646,
      "inn": 5647,
      "eler": 5648,
      "asim": 5649,
      "Ġdessin": 5650,
      "Ġavis": 5651,
      "avocat": 5652,
      "ĠÃ©troite": 5653,
      "abs": 5654,
      "ĠMme": 5655,
      "ĠPH": 5656,
      "ĠJacques": 5657,
      "Ġvenge": 5658,
      "Ġactions": 5659,
      "glout": 5660,
      "Ġsemblaient": 5661,
      "Ġinstinct": 5662,
      "ĊĊĠĠĠĠĠĠĠĠĠĠĠĠĠĠĠĠĠĠĠĠĠĠĠ": 5663,
      "Ġprofondeur": 5664,
      "Ġcontinent": 5665,
      "ĠrÃ©volutions": 5666,
      "Ġconstitu": 5667,
      "presque": 5668,
      "Ġanciens": 5669,
      "OLLO": 5670,
      "ulsion": 5671,
      "ĠFROLLO": 5672,
      "Ã©leste": 5673,
      "Cl": 5674,
      "Sous": 5675,
      "nuit": 5676,
      "oques": 5677,
      "obre": 5678,
      "yez": 5679,
      "Ġombres": 5680,
      "Ġdur": 5681,
      "Ġpuits": 5682,
      "Ġcos": 5683,
      "Ġcuivre": 5684,
      "anÃ§a": 5685,
      "Ġmu": 5686,
      "ĠmÃ©n": 5687,
      "Ġmult": 5688,
      "Ġmoindre": 5689,
      "ilence": 5690,
      "Ġvap": 5691,
      "Ġtais": 5692,
      "ĠnaÃ¯": 5693,
      "atif": 5694,
      "choses": 5695,
      "Ġsein": 5696,
      "endie": 5697,
      "ĠMabeuf": 5698,
      "Ġoct": 5699,
      "uxelles": 5700,
      "Ġproch": 5701,
      "raordinaire": 5702,
      "ension": 5703,
      "ĠGuernesey": 5704,
      "Ã©cole": 5705,
      "ancienne": 5706,
      "Ġportrait": 5707,
      "Ġrevol": 5708,
      "Ġhumaines": 5709,
      "ereurs": 5710,
      "prod": 5711,
      "Ġrefl": 5712,
      "Ġmoral": 5713,
      "Ġecriv": 5714,
      "Ġfigures": 5715,
      "ĠlÃ©gis": 5716,
      "Ġviolence": 5717,
      "Ġdomest": 5718,
      "Ġtrompe": 5719,
      "Ġsouterr": 5720,
      "Ġretrouv": 5721,
      "orgueil": 5722,
      "autorite": 5723,
      "ptiÃ¨me": 5724,
      ".)": 5725,
      "ES": 5726,
      "UN": 5727,
      "cte": 5728,
      "faut": 5729,
      "frique": 5730,
      "gard": 5731,
      "honn": 5732,
      "ls": 5733,
      "monsieur": 5734,
      "march": 5735,
      "rin": 5736,
      "yll": 5737,
      "onÃ§ait": 5738,
      "annÃ©e": 5739,
      "quit": 5740,
      "quets": 5741,
      "ilier": 5742,
      "Ġtenu": 5743,
      "riÃ¨res": 5744,
      "Ġparis": 5745,
      "----": 5746,
      "ĠÃ©ternelle": 5747,
      "ainc": 5748,
      "apt": 5749,
      "Ġod": 5750,
      "ombe": 5751,
      "ĠTant": 5752,
      "ĠentrÃ©": 5753,
      "Ġentrait": 5754,
      "Ġquelles": 5755,
      "aye": 5756,
      "Ġmarqu": 5757,
      "ĠconsÃ©qu": 5758,
      "Ġallant": 5759,
      "idee": 5760,
      "Ġmontrer": 5761,
      "Ġcharrette": 5762,
      "peine": 5763,
      "entrer": 5764,
      "Ġgross": 5765,
      "Ġchemise": 5766,
      "habitude": 5767,
      "Quelques": 5768,
      "Ġcharmante": 5769,
      "Ġfantais": 5770,
      "ĠmÃ©pris": 5771,
      "Ġlogique": 5772,
      "ĠHomo": 5773,
      "Ġlanterne": 5774,
      "Ġvelours": 5775,
      "Jacques": 5776,
      "cir": 5777,
      "lys": 5778,
      "mouvement": 5779,
      "souff": 5780,
      "viv": 5781,
      "Ġsert": 5782,
      "Ã©tabl": 5783,
      "Ġenle": 5784,
      "Ġgoth": 5785,
      "riomp": 5786,
      "rimer": 5787,
      "ĠauprÃ¨s": 5788,
      "ĠhÃ¢te": 5789,
      "igantes": 5790,
      "onnÃ©s": 5791,
      "ĠJamais": 5792,
      "ĠJÃ©sus": 5793,
      "otions": 5794,
      "Ġvoleur": 5795,
      "ĠOu": 5796,
      "Ġarbre": 5797,
      "aissaient": 5798,
      "Ġactes": 5799,
      "Ġtraverse": 5800,
      "ĠfermÃ©e": 5801,
      "riture": 5802,
      "ommage": 5803,
      "Ġpere": 5804,
      "ĠannÃ©e": 5805,
      "ĠIci": 5806,
      "Ġcondition": 5807,
      "ĠrÃ©sol": 5808,
      "iblement": 5809,
      "Ġcivile": 5810,
      "rantaire": 5811,
      "ĠsauvÃ©": 5812,
      "Ġfacile": 5813,
      "Ġprononcer": 5814,
      "ĠfantÃ´me": 5815,
      "ohn": 5816,
      "ĠbÃ¢ton": 5817,
      "Ġoiseau": 5818,
      "Ġbancs": 5819,
      "Ġpoignard": 5820,
      "extrÃ©mitÃ©": 5821,
      "ject": 5822,
      "Ġdirai": 5823,
      "Ġsuccess": 5824,
      "civilisation": 5825,
      "NapolÃ©on": 5826,
      "AD": 5827,
      "Cour": 5828,
      "conn": 5829,
      "fut": 5830,
      "pen": 5831,
      "sen": 5832,
      "Ġprie": 5833,
      "reuil": 5834,
      "erons": 5835,
      "Ġlampe": 5836,
      "Ġlecteur": 5837,
      "antÃ©": 5838,
      "auberge": 5839,
      "Ġbonnet": 5840,
      "ĠrÃ´": 5841,
      "Ġrug": 5842,
      "champ": 5843,
      "Ã©tique": 5844,
      "Ġavenir": 5845,
      "Ġredev": 5846,
      "ĠÃ©touff": 5847,
      "abilite": 5848,
      "mpor": 5849,
      "igine": 5850,
      "uxem": 5851,
      "ĠTriboulet": 5852,
      "ĠÃ©crire": 5853,
      "ĠĠĠĠĠĠĠĠĠĠĠĠĠĠĠĠĠĠĠĠĠĠĠĠĠĠĠĠĠĠĠĠ": 5854,
      "Ġclou": 5855,
      "Ã©loign": 5856,
      "Ġpleurer": 5857,
      "Ġcoloss": 5858,
      "Ġsaisir": 5859,
      "ĠrÃ©pondu": 5860,
      "Ġsuivi": 5861,
      "conv": 5862,
      "Ġespagn": 5863,
      "archie": 5864,
      "ĠAujourd": 5865,
      "Ġsacre": 5866,
      "Ġappeler": 5867,
      "opinion": 5868,
      "Ġimag": 5869,
      "personne": 5870,
      "Ġrespons": 5871,
      "ĠreÃ§u": 5872,
      "ĠÃ©difice": 5873,
      "pieds": 5874,
      "ponine": 5875,
      "uxembourg": 5876,
      "Box": 5877,
      "IX": 5878,
      "Notre": 5879,
      "ep": 5880,
      "Ġlourd": 5881,
      "aive": 5882,
      "onÃ§a": 5883,
      "ĠpÃªle": 5884,
      "Ġcort": 5885,
      "Ġdecembre": 5886,
      "Ġquai": 5887,
      "ĠquatriÃ¨me": 5888,
      "neille": 5889,
      "Ġlas": 5890,
      "ĠvallÃ©e": 5891,
      "Ġfouill": 5892,
      "Ġtenant": 5893,
      "Ġbande": 5894,
      "oigne": 5895,
      "Ġjure": 5896,
      "ceaux": 5897,
      "ĠgaÃ®": 5898,
      "rim": 5899,
      "ĠLeur": 5900,
      "aventure": 5901,
      "outes": 5902,
      "iennes": 5903,
      "abat": 5904,
      "ĠPeu": 5905,
      "ĠPaul": 5906,
      "ĠinouÃ¯": 5907,
      "ĠBeau": 5908,
      "istrat": 5909,
      "ĠRob": 5910,
      "Ã©cout": 5911,
      "ainement": 5912,
      "aleur": 5913,
      "Ġcriait": 5914,
      "attach": 5915,
      "Ãīt": 5916,
      "orms": 5917,
      "heureuse": 5918,
      "prob": 5919,
      "Ġconfond": 5920,
      "Ġsouvient": 5921,
      "ĠÃ©vanou": 5922,
      "Ġviole": 5923,
      "iendrait": 5924,
      "000": 5925,
      "Ġrecevoir": 5926,
      "ĠmÃ©lanc": 5927,
      "Ġjaune": 5928,
      "ĠprÃ©cisÃ©ment": 5929,
      "cas": 5930,
      "dist": 5931,
      "har": 5932,
      "hÃ©s": 5933,
      "sait": 5934,
      "suis": 5935,
      "uel": 5936,
      "uge": 5937,
      "ĠpÃªch": 5938,
      "Ġsoud": 5939,
      "archevÃªque": 5940,
      "ilibre": 5941,
      "Ġvierge": 5942,
      "Ġtaire": 5943,
      "omte": 5944,
      "orient": 5945,
      "Ġbure": 5946,
      "Ġchaud": 5947,
      "ĠMM": 5948,
      "ĠMaintenant": 5949,
      "igme": 5950,
      "Ġprobl": 5951,
      "ĠGe": 5952,
      "oyÃ©": 5953,
      "Ġ10": 5954,
      "Ġjust": 5955,
      "ĠChaque": 5956,
      "merique": 5957,
      "Ġpouvaient": 5958,
      "Ġbloc": 5959,
      "grÃ©s": 5960,
      "Ġcompter": 5961,
      "Ġpaysage": 5962,
      "ĠmatÃ©ri": 5963,
      "ĊĠĠĠĠĠĠĠĠĠĠĠĠĠĠĠĠĠĠĠĠĠĠĠĠ": 5964,
      "ĠnuÃ©es": 5965,
      "ĠfixÃ©": 5966,
      "Ġromain": 5967,
      "Ġreligieuse": 5968,
      "ĠpavÃ©s": 5969,
      "Ġpoussa": 5970,
      "Ġrapidement": 5971,
      "Ġcircul": 5972,
      "Ġfurieux": 5973,
      "ĠvÃ©nÃ©rable": 5974,
      "Fran": 5975,
      "Gavroche": 5976,
      "oble": 5977,
      "pat": 5978,
      "pÃ©tu": 5979,
      "yre": 5980,
      "ĩa": 5981,
      "ĠcÃ©leste": 5982,
      "Ġasi": 5983,
      "Ġvend": 5984,
      "inÃ©e": 5985,
      "ourir": 5986,
      "Ġronde": 5987,
      "estes": 5988,
      "Ġgrace": 5989,
      "roc": 5990,
      "Ġrepl": 5991,
      "ĠchrÃ©t": 5992,
      "agÃ©": 5993,
      "abol": 5994,
      "Ġprouve": 5995,
      "Ġtrous": 5996,
      "Ġtroupe": 5997,
      "uter": 5998,
      "gea": 5999,
      "illÃ©e": 6000,
      "ĠGar": 6001,
      "Ġbrou": 6002,
      "Ã©cu": 6003,
      "Ġmarque": 6004,
      "alem": 6005,
      "Ġaimait": 6006,
      "asseoir": 6007,
      "Ã©paule": 6008,
      "adem": 6009,
      "ĠguÃ¨re": 6010,
      "Ġrevenir": 6011,
      "Ġhumble": 6012,
      "Ġautrement": 6013,
      "Ġanim": 6014,
      "Ġsouriant": 6015,
      "Ġprintemps": 6016,
      "ĠDES": 6017,
      "Ġrappro": 6018,
      "ĠnuÃ©e": 6019,
      "Ġfamilles": 6020,
      "Ġecrit": 6021,
      "Ġphilosophes": 6022,
      "ĊĊĠĠĠĠĠĠĠĠĠĠĠĠĠĠĠĠĠĠĠĠĠĠĠĠĠ": 6023,
      "Ġhideuse": 6024,
      "ĠcommencÃ©": 6025,
      "Ġrappeler": 6026,
      "Ġgrim": 6027,
      "Bravo": 6028,
      "Ġlatin": 6029,
      "ĠPontmercy": 6030,
      "Ġrumeur": 6031,
      "Ġpaup": 6032,
      "Ceci": 6033,
      "OE": 6034,
      "del": 6035,
      "fen": 6036,
      "mill": 6037,
      "Ġpose": 6038,
      "anes": 6039,
      "anique": 6040,
      "anime": 6041,
      "Ġache": 6042,
      "arrive": 6043,
      "ismes": 6044,
      "Ġtord": 6045,
      "Ġtene": 6046,
      "Ġboul": 6047,
      "Ġbouff": 6048,
      "chaient": 6049,
      "chambre": 6050,
      "ĠgÃª": 6051,
      "alt": 6052,
      "ĠseiziÃ¨me": 6053,
      "ĠplaÃ®t": 6054,
      "ĠÃ©troit": 6055,
      "ĠMonsieur": 6056,
      "onnent": 6057,
      "ĠVenise": 6058,
      "Ġprosp": 6059,
      "tible": 6060,
      "ĠmarchÃ©": 6061,
      "aÃ®nes": 6062,
      "Ġcourant": 6063,
      "Ġallaient": 6064,
      "session": 6065,
      "Ġmontagn": 6066,
      "ĠdonnÃ©e": 6067,
      "verse": 6068,
      "Ã©meute": 6069,
      "Ġlongs": 6070,
      "Ġmurailles": 6071,
      "Ġouvriers": 6072,
      "arrÃªter": 6073,
      "Ġenvers": 6074,
      "Ġapparence": 6075,
      "Aujourd": 6076,
      "ĠdrÃ´le": 6077,
      "Ġcalomn": 6078,
      "Ġcercle": 6079,
      "Ġflotte": 6080,
      "venue": 6081,
      "demand": 6082,
      "Ġtellement": 6083,
      "Ġspectres": 6084,
      "Ġchaos": 6085,
      "Ġcorridor": 6086,
      "Sch": 6087,
      "aquet": 6088,
      "bran": 6089,
      "ee": 6090,
      "fec": 6091,
      "lis": 6092,
      "lier": 6093,
      "lÃ©g": 6094,
      "yg": 6095,
      "Ġden": 6096,
      "Ġlaissez": 6097,
      "Ã©blou": 6098,
      "Ġpaille": 6099,
      "Ġpendu": 6100,
      "ĠspÃ©": 6101,
      "ĠdegrÃ©s": 6102,
      "eront": 6103,
      "erable": 6104,
      "ĠfiÃ¨vre": 6105,
      "Ġtiens": 6106,
      "Ġboute": 6107,
      "Ã¨ves": 6108,
      "resp": 6109,
      "Ġrepart": 6110,
      "Ġchiens": 6111,
      "Ġchancelier": 6112,
      "ĠCal": 6113,
      "ĠÃ©toile": 6114,
      "aintes": 6115,
      "ĠÃ©puis": 6116,
      "iciers": 6117,
      "Ġintime": 6118,
      "parti": 6119,
      "Ġdise": 6120,
      "Ġ13": 6121,
      "ingote": 6122,
      "ĠrÃ©ponse": 6123,
      "Ġcourb": 6124,
      "Ġnommer": 6125,
      "Ġfaisons": 6126,
      "Ġeffroyable": 6127,
      "Ġrecueill": 6128,
      "Ġattaque": 6129,
      "Ġglac": 6130,
      "Ġgenere": 6131,
      "Ġrestau": 6132,
      "Ġsemblent": 6133,
      "Ġredress": 6134,
      "Ġservi": 6135,
      "monie": 6136,
      "Ġfameux": 6137,
      "Ġofficier": 6138,
      "Ġreconnu": 6139,
      "Ġreconnut": 6140,
      "Ġfrappa": 6141,
      "Ġfroide": 6142,
      "Ġartistes": 6143,
      "Ġprononce": 6144,
      "Ġmenace": 6145,
      "Ġmajestu": 6146,
      "Ġguide": 6147,
      "Ġennemi": 6148,
      "ĠriviÃ¨re": 6149,
      "conscience": 6150,
      "ĠRÃ©publique": 6151,
      "Fauchelevent": 6152,
      "cet": 6153,
      "cÃ©an": 6154,
      "pression": 6155,
      "Ġout": 6156,
      "Ã©ge": 6157,
      "Ġsable": 6158,
      "ĠmÃ©c": 6159,
      "entour": 6160,
      "Ġfoyer": 6161,
      "itaires": 6162,
      "inent": 6163,
      "inqui": 6164,
      "Ġrig": 6165,
      "usion": 6166,
      "uster": 6167,
      "Ġench": 6168,
      "Ġgaz": 6169,
      "Ġaventure": 6170,
      "Ġrej": 6171,
      "ĠCeux": 6172,
      "Ġplomb": 6173,
      "ranges": 6174,
      "ieres": 6175,
      "Ġpourpre": 6176,
      "Ġsurface": 6177,
      "ick": 6178,
      "Ġtron": 6179,
      "Ġtrace": 6180,
      "chement": 6181,
      "ĠTr": 6182,
      "ĠBossuet": 6183,
      "aution": 6184,
      "ensitÃ©": 6185,
      "vembre": 6186,
      "ĠHernani": 6187,
      "times": 6188,
      "exemple": 6189,
      "Ġvenus": 6190,
      "Ġsortant": 6191,
      "Ġrepete": 6192,
      "attent": 6193,
      "Ġpenseur": 6194,
      "Ġvivait": 6195,
      "Enfin": 6196,
      "Ġeurop": 6197,
      "Ġvoulut": 6198,
      "espÃ¨ce": 6199,
      "ĠmatiÃ¨re": 6200,
      "Ġroue": 6201,
      "Ġdemandait": 6202,
      "ĠapparaÃ®t": 6203,
      "Ġreconnaissance": 6204,
      "ĠmÃªlÃ©": 6205,
      "ĠdÃ©liv": 6206,
      "appeler": 6207,
      "ĠprÃ©cÃ©d": 6208,
      "Ġflambeau": 6209,
      "ĠstupÃ©": 6210,
      "Ġdeclare": 6211,
      "ĠmaÃ®tresse": 6212,
      "Ġsculpt": 6213,
      "Ġmaladie": 6214,
      "ĠcuriositÃ©": 6215,
      "MER": 6216,
      "los": 6217,
      "Ġpret": 6218,
      "Ġsois": 6219,
      "Ġcuis": 6220,
      "Ġcoute": 6221,
      "Ġnum": 6222,
      "Ġber": 6223,
      "atte": 6224,
      "Ġchoix": 6225,
      "ĠCON": 6226,
      "ĠÃ©ternel": 6227,
      "Ġev": 6228,
      "acune": 6229,
      "ĠDante": 6230,
      "ĠES": 6231,
      "Ġsiff": 6232,
      "Ã©ral": 6233,
      "Ġbrouss": 6234,
      "termin": 6235,
      "trans": 6236,
      "ĠabÃ®me": 6237,
      "Ãīthel": 6238,
      "Ã©volution": 6239,
      "Ġimpl": 6240,
      "Ġbarbe": 6241,
      "Christ": 6242,
      "Ġglobe": 6243,
      "Ġsalon": 6244,
      "ellington": 6245,
      "Ġassist": 6246,
      "Ġassass": 6247,
      "Ġfinir": 6248,
      "Åĵuvre": 6249,
      "accent": 6250,
      "Ġcompose": 6251,
      "Ġprofonds": 6252,
      "Ġcombien": 6253,
      "ĠWal": 6254,
      "reconn": 6255,
      "Ġmorceau": 6256,
      "ĠreconnaÃ®tre": 6257,
      "Ġsauvages": 6258,
      "Ġpuissante": 6259,
      "Ġsubitement": 6260,
      "ĠcachÃ©": 6261,
      "ĠquittÃ©": 6262,
      "Ġremarquer": 6263,
      "Ġjuger": 6264,
      "Ġexpression": 6265,
      "Ġmurmure": 6266,
      "ĠprocÃ¨s": 6267,
      "Ġexcell": 6268,
      "Seigneur": 6269,
      "ĠPhilippe": 6270,
      "Ġfatigue": 6271,
      "ĠGreen": 6272,
      "ĠfÃ©roce": 6273,
      "Ġastres": 6274,
      "Ġparfaitement": 6275,
      "fermeil": 6276,
      "Avant": 6277,
      "OT": 6278,
      "Vers": 6279,
      "conc": 6280,
      "don": 6281,
      "fant": 6282,
      "gauche": 6283,
      "lin": 6284,
      "lÃ©e": 6285,
      "rud": 6286,
      "uments": 6287,
      "ypte": 6288,
      "Ġdog": 6289,
      "Ġluc": 6290,
      "ĠsÃ©r": 6291,
      "ĠaoÃ»t": 6292,
      "Ġmut": 6293,
      "ĠmÃ¨res": 6294,
      "Ġmultipl": 6295,
      "Ġvil": 6296,
      "ĠbiÃ¨re": 6297,
      "Ġdess": 6298,
      "Ġseize": 6299,
      "ĠLui": 6300,
      "olphe": 6301,
      "Ġplaie": 6302,
      "irai": 6303,
      "Ġpourra": 6304,
      "ĠMil": 6305,
      "ĠPAR": 6306,
      "ĠdÃ©ro": 6307,
      "Ġmonument": 6308,
      "Ġargent": 6309,
      "Ġbronze": 6310,
      "oyant": 6311,
      "approche": 6312,
      "ancer": 6313,
      "aleine": 6314,
      "trÃ¨s": 6315,
      "Ġaimer": 6316,
      "railles": 6317,
      "Ġfermer": 6318,
      "Ã©pouvante": 6319,
      "Ġabsent": 6320,
      "Ġremu": 6321,
      "Ġsuivant": 6322,
      "Ġminuit": 6323,
      "Ġouvre": 6324,
      "_),": 6325,
      "humaine": 6326,
      "Ġrude": 6327,
      "acket": 6328,
      "Ġtels": 6329,
      "pliqua": 6330,
      "ĠpiÃ¨ces": 6331,
      "toine": 6332,
      "ĠBlanc": 6333,
      "Ġsupplice": 6334,
      "politique": 6335,
      "ĠCorneille": 6336,
      "valles": 6337,
      "empÃªcher": 6338,
      "Ġprunelle": 6339,
      "Ġpistolet": 6340,
      "gouvernement": 6341,
      "Emp": 6342,
      "Long": 6343,
      "notre": 6344,
      "passe": 6345,
      "seul": 6346,
      "vrai": 6347,
      "esclav": 6348,
      "ouement": 6349,
      "Ġcoule": 6350,
      "Ġdeg": 6351,
      "erve": 6352,
      "Ġvac": 6353,
      "Ġvaisse": 6354,
      "ori": 6355,
      "Ġrid": 6356,
      "Ġroule": 6357,
      "Ġrenf": 6358,
      "Ã©tÃ©s": 6359,
      "reste": 6360,
      "ĠhaÃ¯": 6361,
      "Ġplonge": 6362,
      "ĠÃ©tabl": 6363,
      "aband": 6364,
      "Ġsurg": 6365,
      "Ġoeuvres": 6366,
      "ĠVers": 6367,
      "Ġdevenait": 6368,
      "Ġserai": 6369,
      "Ġdial": 6370,
      "raires": 6371,
      "Ġcriant": 6372,
      "emport": 6373,
      "attendu": 6374,
      "ĠbarriÃ¨re": 6375,
      "Ġaccompagn": 6376,
      "udeur": 6377,
      "ĠrÃ©pondait": 6378,
      "effort": 6379,
      "ĠThÃ©": 6380,
      "ĠPourtant": 6381,
      "ĠdÃ©faut": 6382,
      "Ġrichesse": 6383,
      "Ġcivilis": 6384,
      "horrible": 6385,
      "disait": 6386,
      "Ġfoudre": 6387,
      "Ġtorture": 6388,
      "litz": 6389,
      "Ġquartier": 6390,
      "ĠaperÃ§u": 6391,
      "approcha": 6392,
      "Ġtragique": 6393,
      "Ġ1815": 6394,
      "Ġfreres": 6395,
      "dÃ©m": 6396,
      "eg": 6397,
      "fils": 6398,
      "maison": 6399,
      "sauv": 6400,
      "Ġsen": 6401,
      "itime": 6402,
      "ĠlevÃ©": 6403,
      "anterie": 6404,
      "Ã©ternitÃ©": 6405,
      "Ġgagne": 6406,
      "ĠchaÃ®nes": 6407,
      "ĠÃ©tage": 6408,
      "ĠintÃ©rieure": 6409,
      "Ġprost": 6410,
      "ĠAllons": 6411,
      "Ġvoiles": 6412,
      "ĠBien": 6413,
      "ensÃ©": 6414,
      "oyeur": 6415,
      "issÃ©": 6416,
      "assassin": 6417,
      "ĠcrÃ¢ne": 6418,
      "ubliques": 6419,
      "ĠEtats": 6420,
      "Ġapporte": 6421,
      "Ã©rite": 6422,
      "Ġprofil": 6423,
      "Ġdonnent": 6424,
      "Ġpatient": 6425,
      "Ġconduit": 6426,
      "ĠprÃ©occup": 6427,
      "Ġtransport": 6428,
      "semblait": 6429,
      "ĠMarie": 6430,
      "Ġremarquable": 6431,
      "Ġcolline": 6432,
      "cription": 6433,
      "armee": 6434,
      "ĠFranc": 6435,
      "Ġrangs": 6436,
      "Ġbandits": 6437,
      "admiration": 6438,
      "ĠFranÃ§ais": 6439,
      "ĠCombeferre": 6440,
      "ĠspÃ©ci": 6441,
      "usterlitz": 6442,
      "House": 6443,
      "bit": 6444,
      "forme": 6445,
      "ram": 6446,
      "rÃ¨te": 6447,
      "vient": 6448,
      "Ġ...": 6449,
      "Ġdange": 6450,
      "Ġli": 6451,
      "erd": 6452,
      "Ġmord": 6453,
      "Ġlame": 6454,
      "ĠfrÃ©": 6455,
      "ĠfÃ©c": 6456,
      "ital": 6457,
      "ourque": 6458,
      "ĠnÃ©ant": 6459,
      "estation": 6460,
      "ĠchangÃ©": 6461,
      "Ġplaces": 6462,
      "ĠMusdÅĵmon": 6463,
      "igence": 6464,
      "ĠPersonne": 6465,
      "ĠSat": 6466,
      "ĠShakespeare": 6467,
      "ĠprotÃ©": 6468,
      "illerie": 6469,
      "ĠAm": 6470,
      "idel": 6471,
      "ĠrÃ©uss": 6472,
      "ĠBen": 6473,
      "ĠGen": 6474,
      "Ġvieill": 6475,
      "existe": 6476,
      "Ġcritique": 6477,
      "Ġcrainte": 6478,
      "Ġamoureux": 6479,
      "Ġsortent": 6480,
      "Ġportier": 6481,
      "ONNE": 6482,
      "Entre": 6483,
      "Ġremettre": 6484,
      "Ġassassin": 6485,
      "Ã©chal": 6486,
      "ĠimmÃ©di": 6487,
      "Ġrefuse": 6488,
      "Ġbourse": 6489,
      "ĠdÃ©tail": 6490,
      "Ġcontinuer": 6491,
      "Ġvitre": 6492,
      "Ġnational": 6493,
      "ception": 6494,
      "ĠWorms": 6495,
      "Ġsubst": 6496,
      "Ġconstat": 6497,
      "ousseau": 6498,
      "Ġdivine": 6499,
      "ĠpoÃ«tes": 6500,
      "Ġcommencer": 6501,
      "Ġbranche": 6502,
      "Ġ179": 6503,
      "Ġprodigieux": 6504,
      "Ġmarchand": 6505,
      "Ġefforts": 6506,
      "honorable": 6507,
      "puissance": 6508,
      "Ġarchite": 6509,
      "question": 6510,
      "Ġguerres": 6511,
      "Ġtigre": 6512,
      "ibaldi": 6513,
      "ĠcortÃ¨ge": 6514,
      "LÃł": 6515,
      "bou": 6516,
      "bal": 6517,
      "ech": 6518,
      "fam": 6519,
      "souv": 6520,
      "vieux": 6521,
      "wn": 6522,
      "Ġw": 6523,
      "Ġdieu": 6524,
      "aritÃ©": 6525,
      "Ġfuite": 6526,
      "Ġfirent": 6527,
      "Ġtonne": 6528,
      "Ġtaill": 6529,
      "orce": 6530,
      "anton": 6531,
      "memes": 6532,
      "usqu": 6533,
      "Ã©tr": 6534,
      "Ã©trange": 6535,
      "Ġauteurs": 6536,
      "--_": 6537,
      "Ġserez": 6538,
      "Ġseigneurs": 6539,
      "Ġprat": 6540,
      "ĠÃ©prouv": 6541,
      "Ġinvent": 6542,
      "onna": 6543,
      "ĠdÃ©part": 6544,
      "ĠAs": 6545,
      "Ġonze": 6546,
      "Ã©ron": 6547,
      "Ã©ritÃ©s": 6548,
      "rÃ©volution": 6549,
      "angoisse": 6550,
      "Ġfruit": 6551,
      "expliquer": 6552,
      "aÃ®nÃ©": 6553,
      "assement": 6554,
      "Ġmontrant": 6555,
      "upiter": 6556,
      "Ġpenseurs": 6557,
      "Ġvivante": 6558,
      "Ġobt": 6559,
      "autel": 6560,
      "Ġbase": 6561,
      "serait": 6562,
      "Ġsource": 6563,
      "Ġconvers": 6564,
      "Ġdram": 6565,
      "ĠÃīc": 6566,
      "Ġjouer": 6567,
      "Ġfixement": 6568,
      "Ġlueurs": 6569,
      "Ġfauve": 6570,
      "Ġsiege": 6571,
      "Ġdistinguait": 6572,
      "Ġstatues": 6573,
      "Ġcirconst": 6574,
      "Ġprolong": 6575,
      "Ġmeilleur": 6576,
      "ĠrÃ¨gne": 6577,
      "Ġgentil": 6578,
      "Ġinterrompit": 6579,
      "ĠÃ©perdu": 6580,
      "Philippe": 6581,
      "ĠMagloire": 6582,
      "VII": 6583,
      "VIII": 6584,
      "Voila": 6585,
      "dÃ©p": 6586,
      "droite": 6587,
      "gÃ©e": 6588,
      "hÃ©rit": 6589,
      "ius": 6590,
      "iants": 6591,
      "jur": 6592,
      "mag": 6593,
      "obl": 6594,
      "pense": 6595,
      "publique": 6596,
      "sage": 6597,
      "Ã¦": 6598,
      "aile": 6599,
      "rete": 6600,
      "anis": 6601,
      "isant": 6602,
      "eue": 6603,
      "itent": 6604,
      "itue": 6605,
      "Ã©toile": 6606,
      "septiÃ¨me": 6607,
      "less": 6608,
      "abilitÃ©": 6609,
      "acite": 6610,
      "Ġtraite": 6611,
      "ĠET": 6612,
      "ĠVive": 6613,
      "illaume": 6614,
      "tÃ©ress": 6615,
      "ĠrÃ©ussi": 6616,
      "ĠrÃ©verb": 6617,
      "ĠentraÃ®": 6618,
      "Ġmembre": 6619,
      "trÃªme": 6620,
      "Ġpuisqu": 6621,
      "Ġcoff": 6622,
      "Ġrepouss": 6623,
      "attaque": 6624,
      "Ġabord": 6625,
      "Ġflanc": 6626,
      "ĠpremiÃ¨res": 6627,
      "inthe": 6628,
      "ormitÃ©": 6629,
      "ĠchargÃ©": 6630,
      "Ġglaive": 6631,
      "Ġaffreuse": 6632,
      "ĠprÃ©par": 6633,
      "Ġfronts": 6634,
      "Ġconvient": 6635,
      "Ġvieillards": 6636,
      "Ġrempli": 6637,
      "ĠcurÃ©": 6638,
      "Ġfourn": 6639,
      "Ġrapide": 6640,
      "Ġordres": 6641,
      "ĠcommenÃ§a": 6642,
      "Ġdormait": 6643,
      "rÃ©taire": 6644,
      "rangers": 6645,
      "Ġtremblement": 6646,
      "cÃ´tÃ©": 6647,
      "Ġveuve": 6648,
      "Ġtristesse": 6649,
      "xiÃ©tÃ©": 6650,
      "Ġnocturne": 6651,
      "Ġasile": 6652,
      "idelberg": 6653,
      "Es": 6654,
      "Sainte": 6655,
      "fai": 6656,
      "lent": 6657,
      "magnif": 6658,
      "po": 6659,
      "pare": 6660,
      "ude": 6661,
      "yon": 6662,
      "yÃ¨s": 6663,
      "Ġdieux": 6664,
      "Ġcout": 6665,
      "Ġmend": 6666,
      "entendait": 6667,
      "Ġtut": 6668,
      "itable": 6669,
      "ores": 6670,
      "orum": 6671,
      "orage": 6672,
      "medi": 6673,
      "oies": 6674,
      "depuis": 6675,
      "Ġhag": 6676,
      "ĠCol": 6677,
      "Ġceinture": 6678,
      "agonie": 6679,
      "ĠÃ©tat": 6680,
      "irons": 6681,
      "apelle": 6682,
      "Ġsonn": 6683,
      "Ġech": 6684,
      "icle": 6685,
      "ĠtraÃ®tre": 6686,
      "uisit": 6687,
      "Ã§aient": 6688,
      "embr": 6689,
      "Ġdisais": 6690,
      "Ġ12": 6691,
      "igner": 6692,
      "Ġpassent": 6693,
      "Ġdiam": 6694,
      "Ġbarre": 6695,
      "Ġpouvons": 6696,
      "ĠQU": 6697,
      "Ġcorb": 6698,
      "Ġterribles": 6699,
      "sera": 6700,
      "odo": 6701,
      "Ġfeuille": 6702,
      "phin": 6703,
      "ĠdemandÃ©": 6704,
      "Ġproport": 6705,
      "athieu": 6706,
      "Ġreprend": 6707,
      "Ġreprendre": 6708,
      "hÃ©on": 6709,
      "Ġgouverneur": 6710,
      "uileries": 6711,
      "ĠMontparnasse": 6712,
      "Ġchanter": 6713,
      "demoiselle": 6714,
      "ĠremarquÃ©": 6715,
      "auld": 6716,
      "Ġcontempor": 6717,
      "Ġsauve": 6718,
      "jeune": 6719,
      "admirable": 6720,
      "Ġinexprimable": 6721,
      "Ġsculp": 6722,
      "Ġfallu": 6723,
      "ĠexceptÃ©": 6724,
      "Ġvapeur": 6725,
      "Afrique": 6726,
      "BUS": 6727,
      "Pard": 6728,
      "ROI": 6729,
      "Valjean": 6730,
      "histor": 6731,
      "ling": 6732,
      "mille": 6733,
      "nt": 6734,
      "rencont": 6735,
      "soit": 6736,
      "uie": 6737,
      "uyant": 6738,
      "Ġpac": 6739,
      "Ġach": 6740,
      "Ġvig": 6741,
      "Ġvif": 6742,
      "Ġvrais": 6743,
      "itoire": 6744,
      "inos": 6745,
      "Ġros": 6746,
      "Ã¨mes": 6747,
      "Ġchanger": 6748,
      "ĠMÃ©d": 6749,
      "ĠprÃªte": 6750,
      "ami": 6751,
      "Ġtrain": 6752,
      "ĠJohn": 6753,
      "airer": 6754,
      "ĠVI": 6755,
      "bli": 6756,
      "ĠrÃ©gn": 6757,
      "Ġentrant": 6758,
      "Ġvieil": 6759,
      "ĠÃ©crite": 6760,
      "Ġgrat": 6761,
      "ifices": 6762,
      "Ġperte": 6763,
      "obÃ©": 6764,
      "Ġcarac": 6765,
      "enfance": 6766,
      "Ġrevoir": 6767,
      "auteville": 6768,
      "Ġempereurs": 6769,
      "Ġmanif": 6770,
      "Ġbouge": 6771,
      "Ġverra": 6772,
      "ĠmisÃ©rables": 6773,
      "ĠcouchÃ©": 6774,
      "Ġjetait": 6775,
      "phel": 6776,
      "Ġsoif": 6777,
      ":--_": 6778,
      "Ġanges": 6779,
      "Ġnovembre": 6780,
      "Ġtableau": 6781,
      "ĠMontfermeil": 6782,
      "Ġsignal": 6783,
      "Ġquitte": 6784,
      "avantage": 6785,
      "Ġcombattre": 6786,
      "Ġdistinguer": 6787,
      "ĠdÃ©chir": 6788,
      "expression": 6789,
      "ĠsinguliÃ¨re": 6790,
      "Ġbandit": 6791,
      "beaucoup": 6792,
      "ominable": 6793,
      "Schumacker": 6794,
      "Madame": 6795,
      "Nouv": 6796,
      "heures": 6797,
      "ke": 6798,
      "oce": 6799,
      "pap": 6800,
      "ĠpÃ»t": 6801,
      "Ġsaign": 6802,
      "Ġspir": 6803,
      "Ġcous": 6804,
      "Ġcite": 6805,
      "eresse": 6806,
      "nement": 6807,
      "ĠvÃªt": 6808,
      "Ġfuit": 6809,
      "Ġtot": 6810,
      "ester": 6811,
      "Ġgigantes": 6812,
      "alg": 6813,
      "alon": 6814,
      "Ġavent": 6815,
      "ĠÃ©tions": 6816,
      "osion": 6817,
      "ĠPant": 6818,
      "uisait": 6819,
      "cile": 6820,
      "Ã©nitÃ©": 6821,
      "Ġmademoiselle": 6822,
      "Ġclam": 6823,
      "ĠChose": 6824,
      "Ã©vrier": 6825,
      "Ġsentiments": 6826,
      "dule": 6827,
      "Ġremis": 6828,
      "Ġreflet": 6829,
      "Ġcomprends": 6830,
      "Ġpropres": 6831,
      "Ġredingote": 6832,
      "ĠsacrÃ©e": 6833,
      "affreux": 6834,
      "Ġsignifie": 6835,
      "iliation": 6836,
      "Ġmajorite": 6837,
      "Ã©clat": 6838,
      "Ġarts": 6839,
      "Ġprononc": 6840,
      "commun": 6841,
      "grands": 6842,
      "rotte": 6843,
      "Ġvoyageurs": 6844,
      "UEL": 6845,
      "Ġpardon": 6846,
      "Ġsouliers": 6847,
      "premier": 6848,
      "ĠexÃ©cut": 6849,
      "ĠconfusÃ©ment": 6850,
      "ĠMessieurs": 6851,
      "Ġmerveilleux": 6852,
      "impossible": 6853,
      "Ġvainqueur": 6854,
      "Ġdespotisme": 6855,
      "ĠCommune": 6856,
      "Ġfossoyeur": 6857,
      "ĠvÃ©ritable": 6858,
      "OEBUS": 6859,
      "UX": 6860,
      "hait": 6861,
      "pÃ©t": 6862,
      "sens": 6863,
      "seulement": 6864,
      "suff": 6865,
      "lez": 6866,
      "Ġmens": 6867,
      "Ġmoyens": 6868,
      "Ġmouch": 6869,
      "teinte": 6870,
      "Ġlament": 6871,
      "Ġviendra": 6872,
      "ĠfÃ©l": 6873,
      "aum": 6874,
      "chÃ©es": 6875,
      "Ã¨tre": 6876,
      "Ġjol": 6877,
      "Ġrejet": 6878,
      "Ġprud": 6879,
      "ĠÃ©veill": 6880,
      "icien": 6881,
      "prouve": 6882,
      "ĠVal": 6883,
      "umer": 6884,
      "ĠrÃ©el": 6885,
      "Ġentiere": 6886,
      "ĠFav": 6887,
      "oupÃ©e": 6888,
      "Ġarg": 6889,
      "Ġbruy": 6890,
      "ĠRÃ©volution": 6891,
      "Ġexil": 6892,
      "Ġescal": 6893,
      "Ġescalier": 6894,
      "olere": 6895,
      "Ġaccept": 6896,
      "Ġcarref": 6897,
      "Ġtombeaux": 6898,
      "Ġferai": 6899,
      "Ġabs": 6900,
      "ictions": 6901,
      "Ġimper": 6902,
      "Ġrevenu": 6903,
      "Ġaccro": 6904,
      "effray": 6905,
      "ermite": 6906,
      "ysion": 6907,
      "Ġriait": 6908,
      "bris": 6909,
      "Ġgouvernements": 6910,
      "ĠfrappÃ©": 6911,
      "ctions": 6912,
      "Ġcitad": 6913,
      "ĠNapoleon": 6914,
      "Ġcollines": 6915,
      "Ġcaverne": 6916,
      "lexion": 6917,
      "aignez": 6918,
      "Ġstupeur": 6919,
      "Ġoreilles": 6920,
      "Ġdouloureux": 6921,
      "Ġapercevait": 6922,
      "ĠQuelquefois": 6923,
      "Ġinscription": 6924,
      "ĠPHOEBUS": 6925,
      "Ġoctobre": 6926,
      ").": 6927,
      "Ac": 6928,
      "Bonaparte": 6929,
      "Denis": 6930,
      "Hernani": 6931,
      "MAG": 6932,
      "aques": 6933,
      "core": 6934,
      "lut": 6935,
      "mot": 6936,
      "vÃ¨ge": 6937,
      "Ġerre": 6938,
      "Ġdira": 6939,
      "Ġlou": 6940,
      "reinte": 6941,
      "quier": 6942,
      "Ġmuet": 6943,
      "Ġfoud": 6944,
      "inÃ©es": 6945,
      "oral": 6946,
      "Ġrendez": 6947,
      "aisons": 6948,
      "Ġgrel": 6949,
      "abe": 6950,
      "prom": 6951,
      "ĠdÃ©pos": 6952,
      "place": 6953,
      "cieuse": 6954,
      "ĠrÃ©flÃ©ch": 6955,
      "ĠTour": 6956,
      "ĠentrÃ©e": 6957,
      "ĠBon": 6958,
      "ĠBoul": 6959,
      "Ã©nom": 6960,
      "autour": 6961,
      "Ġauxquels": 6962,
      "Ġbienveill": 6963,
      "Ã©cume": 6964,
      "appuy": 6965,
      "issons": 6966,
      "Ġserais": 6967,
      "ancÃ©": 6968,
      "Ġgroupes": 6969,
      "Ġaigu": 6970,
      "ĠcoupÃ©": 6971,
      "Ġamours": 6972,
      "Ġsemaines": 6973,
      "Ġimporte": 6974,
      "Ġpensait": 6975,
      "ĠdÃ©sir": 6976,
      "Ġsalue": 6977,
      "Ġvolup": 6978,
      "Ġscrut": 6979,
      "Ġnouveaux": 6980,
      "Ġagon": 6981,
      "ĠinfÃ¢me": 6982,
      "Ġvoisine": 6983,
      "Ġdevoirs": 6984,
      "Ġdestine": 6985,
      "annÃ©es": 6986,
      "Ġcauses": 6987,
      "Ġproposition": 6988,
      "Ġprovince": 6989,
      "ĠmystÃ©rieuse": 6990,
      "Ġvaincus": 6991,
      "ĠmÃ©di": 6992,
      "Ġfaudra": 6993,
      "Ġrepresentant": 6994,
      "Ġinquiet": 6995,
      "Ġcombattants": 6996,
      "ĠPalais": 6997,
      "Ã©phant": 6998,
      "Ġlumineux": 6999,
      "Ġgothique": 7000,
      "Ġtenebres": 7001,
      "Bon": 7002,
      "IT": 7003,
      "bis": 7004,
      "heurs": 7005,
      "maintenant": 7006,
      "pus": 7007,
      "ples": 7008,
      "rag": 7009,
      "sorte": 7010,
      "sub": 7011,
      "tim": 7012,
      "ÃĶ": 7013,
      "envie": 7014,
      "Ġpeux": 7015,
      "ouble": 7016,
      "relles": 7017,
      "Ġcoins": 7018,
      "tements": 7019,
      "Ġfuir": 7020,
      "ĠtÃ¢t": 7021,
      "elÃ©": 7022,
      "elas": 7023,
      "astres": 7024,
      "aumes": 7025,
      "Ġbri": 7026,
      "ĠgÃ©m": 7027,
      "Ġaud": 7028,
      "Ãªnes": 7029,
      "Ġhaillons": 7030,
      "Ġplateau": 7031,
      "abes": 7032,
      "Ġsurveill": 7033,
      "Ġprennent": 7034,
      "ffes": 7035,
      "ĠdÃ©cid": 7036,
      "inex": 7037,
      "ĠrÃ©ch": 7038,
      "Ã®mes": 7039,
      "Ã©rÃ©e": 7040,
      "ĠLevin": 7041,
      "Ġtelles": 7042,
      "isser": 7043,
      "Ġserpent": 7044,
      "Ġdisaient": 7045,
      "ignait": 7046,
      "Ġpartage": 7047,
      "Ġcrimine": 7048,
      "Ġrepublic": 7049,
      "Ġmonts": 7050,
      "Ġmontait": 7051,
      "Ġpossibles": 7052,
      "roid": 7053,
      "Ġeussent": 7054,
      "ĠprÃ©sente": 7055,
      "Ġsavant": 7056,
      "grave": 7057,
      "Ġcherchant": 7058,
      "Ġsembla": 7059,
      "Ġcomprenait": 7060,
      "Ġconstate": 7061,
      "Ġsinon": 7062,
      "Ġreligieux": 7063,
      "Ġbarricades": 7064,
      "ĠSeigneur": 7065,
      "Ġhabitants": 7066,
      "Ġmaigre": 7067,
      "Ġsouper": 7068,
      "Ġplupart": 7069,
      "ĠBruxelles": 7070,
      "Ġrentra": 7071,
      "Ġchoisi": 7072,
      "Ġsplendeur": 7073,
      "Ġmiroir": 7074,
      "pouvoir": 7075,
      "DAME": 7076,
      "Ġdouter": 7077,
      "Ġmusique": 7078,
      "ducation": 7079,
      "Ġchanson": 7080,
      "ĠvÃªtements": 7081,
      "asimodo": 7082,
      "Ġfantaisie": 7083,
      "AT": 7084,
      "Hugo": 7085,
      "celle": 7086,
      "faction": 7087,
      "gie": 7088,
      "suc": 7089,
      "Ġiv": 7090,
      "Ġdict": 7091,
      "Ġpie": 7092,
      "Ġsap": 7093,
      "Ġsaut": 7094,
      "Ġsyste": 7095,
      "reme": 7096,
      "Ġcell": 7097,
      "anches": 7098,
      "erriÃ¨re": 7099,
      "eter": 7100,
      "ĠaÃ¯": 7101,
      "lew": 7102,
      "nez": 7103,
      "Ġlev": 7104,
      "omyÃ¨s": 7105,
      "Ġbec": 7106,
      "estÃ©": 7107,
      "chi": 7108,
      "Ã¨ces": 7109,
      "Ġgol": 7110,
      "Ġauberge": 7111,
      "Ġparu": 7112,
      "quement": 7113,
      "olomyÃ¨s": 7114,
      "ĠDem": 7115,
      "Ġoh": 7116,
      "ĠVoyez": 7117,
      "agement": 7118,
      "ĠRom": 7119,
      "veil": 7120,
      ".--_": 7121,
      "ayonn": 7122,
      "ĠÃ©cus": 7123,
      "Ġ11": 7124,
      "ĠChacun": 7125,
      "Ġabsor": 7126,
      "Ãīlys": 7127,
      "Ġpleines": 7128,
      "arth": 7129,
      "Ġportail": 7130,
      "glises": 7131,
      "Ġcolonnes": 7132,
      "inceul": 7133,
      "Ġgenie": 7134,
      "Ġsouffles": 7135,
      "Ġaffec": 7136,
      "Ġministres": 7137,
      "eriez": 7138,
      "Ġ20": 7139,
      "astique": 7140,
      "humain": 7141,
      "Ġoffre": 7142,
      "Ġofficiers": 7143,
      "Ġdifforme": 7144,
      "sold": 7145,
      "Ġconcierge": 7146,
      "Ġbalance": 7147,
      "Ġsignif": 7148,
      "ĠcloÃ®tre": 7149,
      "Ġcontinuait": 7150,
      "ALDA": 7151,
      "Ġglorieux": 7152,
      "Ġchiffre": 7153,
      "Ġtorrent": 7154,
      "ĠlittÃ©rature": 7155,
      "Ġexistence": 7156,
      "Ġepoque": 7157,
      "Ġchasseur": 7158,
      "Ġmoeurs": 7159,
      "Charles": 7160,
      "TAB": 7161,
      "oebus": 7162,
      "innocence": 7163,
      "ĠtÃ©nÃ©breux": 7164,
      "Ġperruque": 7165,
      "riomphe": 7166,
      "ĠgaÃ®tÃ©": 7167,
      "MERALDA": 7168,
      "ĠESMERALDA": 7169,
      "auldour": 7170,
      "UELONNE": 7171,
      "Hom": 7172,
      "IEN": 7173,
      "celui": 7174,
      "dic": 7175,
      "four": 7176,
      "fat": 7177,
      "gar": 7178,
      "ho": 7179,
      "mands": 7180,
      "pont": 7181,
      "table": 7182,
      "venait": 7183,
      "onf": 7184,
      "Ġpans": 7185,
      "Ġpire": 7186,
      "Ġcis": 7187,
      "Ġajoute": 7188,
      "Ġmers": 7189,
      "ĠmÃ¢t": 7190,
      "Ġmission": 7191,
      "enthousiasme": 7192,
      "eus": 7193,
      "Ġfevrier": 7194,
      "orie": 7195,
      "orables": 7196,
      "Ġroc": 7197,
      "Ġgro": 7198,
      "Ġgrec": 7199,
      "ĠchÃ©t": 7200,
      "ĠchÃªne": 7201,
      "ĠLuc": 7202,
      "osses": 7203,
      "ouvrier": 7204,
      "Ã©sor": 7205,
      "Ġeaux": 7206,
      "ĠDan": 7207,
      "rate": 7208,
      "Ġtemple": 7209,
      "issue": 7210,
      "Ġserre": 7211,
      "ĠĠĠĠĠĠĠĠĠĠĠĠĠĠĠĠĠĠĠĠĠĠĠĠ": 7212,
      "Ġcrut": 7213,
      "Ġcode": 7214,
      "ĠtombÃ©e": 7215,
      "ĠtournÃ©": 7216,
      "Ġsenti": 7217,
      "Ġblas": 7218,
      "Ġsourit": 7219,
      "Ġcoude": 7220,
      "RES": 7221,
      "ĠrÃªves": 7222,
      "Ġboutique": 7223,
      "Ġconsciences": 7224,
      "dispar": 7225,
      "ĠAngl": 7226,
      "Ġchantait": 7227,
      "usquement": 7228,
      "Ġlangage": 7229,
      "Ġmagnifiques": 7230,
      "Ġvalets": 7231,
      "ĠforÃªts": 7232,
      "ĠÃĬtre": 7233,
      "Ġlisait": 7234,
      "Ġguichet": 7235,
      "ĠplacÃ©": 7236,
      "ĠlÃ¢che": 7237,
      "Ġmineurs": 7238,
      "ouverture": 7239,
      "Ġaccepte": 7240,
      "ĠrÃ¨gle": 7241,
      "denlew": 7242,
      "ĠNicless": 7243,
      "ĠAucun": 7244,
      "ĠdÃ®ner": 7245,
      "oÃ¯s": 7246,
      "ĠHeidelberg": 7247,
      "Ġmultitude": 7248,
      "Donc": 7249,
      "EL": 7250,
      "Elles": 7251,
      "Personne": 7252,
      "coll": 7253,
      "dÃ©l": 7254,
      "laiss": 7255,
      "ĠÃ´t": 7256,
      "Ġlinceul": 7257,
      "Ã©f": 7258,
      "Ġpente": 7259,
      "Ġprier": 7260,
      "Ġsyn": 7261,
      "Ġmonn": 7262,
      "Ġmasses": 7263,
      "Ġfussent": 7264,
      "Ġten": 7265,
      "ĠbÃ¢": 7266,
      "Ġrares": 7267,
      "chir": 7268,
      "ageux": 7269,
      "abbÃ©": 7270,
      "unt": 7271,
      "Ġinvisible": 7272,
      "ĠVa": 7273,
      "Ġproclam": 7274,
      "illait": 7275,
      "tÃ©es": 7276,
      "laquelle": 7277,
      "rÃ©c": 7278,
      "Ġcontenait": 7279,
      "Ġgrond": 7280,
      "impl": 7281,
      "examin": 7282,
      "ĠregardÃ©": 7283,
      "ĠmontÃ©": 7284,
      "rits": 7285,
      "Ġvoyais": 7286,
      "ĠportÃ©": 7287,
      "Ġadop": 7288,
      "ĠposÃ©": 7289,
      "Ġpouvant": 7290,
      "Ġcolle": 7291,
      "Ġprisonniers": 7292,
      "ĠvolÃ©": 7293,
      "Ġsouffrances": 7294,
      "ernard": 7295,
      "Ġcouche": 7296,
      "Ġindiff": 7297,
      "Ġjetant": 7298,
      "Ġprofondes": 7299,
      "ĠdÃ©term": 7300,
      "ĠidÃ©": 7301,
      "Ġ27": 7302,
      "ĠsacrÃ©": 7303,
      "ĠrÃ©volte": 7304,
      "ĊĊĠĠĠĠĠĠ": 7305,
      "disc": 7306,
      "derriÃ¨re": 7307,
      "Ġviolent": 7308,
      "Ġcabinet": 7309,
      "guerre": 7310,
      "ĠfantÃ´mes": 7311,
      "Ġvoudra": 7312,
      "ALTAB": 7313,
      "Ġdressa": 7314,
      "ĠfunÃ¨bres": 7315,
      "ĠfunÃ¨bre": 7316,
      "lexandre": 7317,
      "Ġaugment": 7318,
      "arriver": 7319,
      "Ġintelligences": 7320,
      "ĠBourg": 7321,
      "interrompit": 7322,
      "milieu": 7323,
      "ĠgÃ©ants": 7324,
      "ĠdignitÃ©": 7325,
      "ĠpossÃ©d": 7326,
      "Ġruisseau": 7327,
      "trasbourg": 7328,
      "ADIL": 7329,
      "MAGUELONNE": 7330,
      "ĠmÃ©dioc": 7331,
      "ALTABADIL": 7332,
      "AP": 7333,
      "Auc": 7334,
      "Amerique": 7335,
      "Cons": 7336,
      "donc": 7337,
      "gros": 7338,
      "hique": 7339,
      "jamb": 7340,
      "liv": 7341,
      "mond": 7342,
      "mystÃ©ri": 7343,
      "rÃª": 7344,
      "uant": 7345,
      "Ġours": 7346,
      "Ġdite": 7347,
      "ĠpÃ©ri": 7348,
      "Ġsinc": 7349,
      "Ġsult": 7350,
      "ĠsÅĵur": 7351,
      "anitÃ©": 7352,
      "Ġames": 7353,
      "entendit": 7354,
      "Ġfausse": 7355,
      "Ġtache": 7356,
      "itutions": 7357,
      "urm": 7358,
      "oite": 7359,
      "oiement": 7360,
      "Ġrecher": 7361,
      "ĠLuxembourg": 7362,
      "ĠÃ©tranger": 7363,
      "unique": 7364,
      "Ġsurs": 7365,
      "Ġsurpris": 7366,
      "ĠMe": 7367,
      "Ġprouv": 7368,
      "ambe": 7369,
      "acier": 7370,
      "erst": 7371,
      "ĠBro": 7372,
      "ĠFl": 7373,
      "Ã©nus": 7374,
      "ĠHacket": 7375,
      "Ġcraign": 7376,
      "Ġcourir": 7377,
      "Ã©puis": 7378,
      "Ġprofess": 7379,
      "Ġattendait": 7380,
      "Ġgueule": 7381,
      "ĠsecrÃ©taire": 7382,
      "Ġempire": 7383,
      "Ġaccour": 7384,
      "volont": 7385,
      "Ġtraversa": 7386,
      "Ġcertitude": 7387,
      "ANT": 7388,
      "ĠÃ©vident": 7389,
      "Ġrires": 7390,
      "Ġservante": 7391,
      "ceptre": 7392,
      "Ġintervalles": 7393,
      "Ġemm": 7394,
      "Ġcroyais": 7395,
      "Ġtranspar": 7396,
      "barric": 7397,
      "ĠGrÃ¨ce": 7398,
      "Ġgalerie": 7399,
      "present": 7400,
      "ĊĊĠĠĠĠĠĠĠĠĠĠĠĠĠĠĠĠĠĠĠĠĠĠĠĠĠĠĠ": 7401,
      "Ġbleue": 7402,
      "Ġhabits": 7403,
      "ĠÃ©clata": 7404,
      "loge": 7405,
      "Ġterrain": 7406,
      "Ġobserv": 7407,
      "Ġrepresentants": 7408,
      "pouvait": 7409,
      "Ġfiacre": 7410,
      "Ġarmee": 7411,
      "Ġactuelle": 7412,
      "Ġmachin": 7413,
      "Ġmaudit": 7414,
      "Ġdistinctement": 7415,
      "ĠMoliÃ¨re": 7416,
      "Ġsympathie": 7417,
      "ĠcaractÃ¨re": 7418,
      "Ġjusticier": 7419,
      "Bien": 7420,
      "CÃĪ": 7421,
      "Citoyens": 7422,
      "Hauteville": 7423,
      "NO": 7424,
      "ceux": 7425,
      "gal": 7426,
      "han": 7427,
      "iche": 7428,
      "nie": 7429,
      "nos": 7430,
      "Ã©veill": 7431,
      "Ġpomp": 7432,
      "ouettes": 7433,
      "Ġsarc": 7434,
      "quie": 7435,
      "telle": 7436,
      "itations": 7437,
      "Ġniv": 7438,
      "Ġjui": 7439,
      "ĠLut": 7440,
      "ĠÃ©tages": 7441,
      "apens": 7442,
      "ĠMau": 7443,
      "ĠprÃ©t": 7444,
      "ĠprÃ©d": 7445,
      "Ġsong": 7446,
      "Ã¨rement": 7447,
      "ĠDevant": 7448,
      "ĠJupiter": 7449,
      "illez": 7450,
      "ĠVII": 7451,
      "Ã¢tres": 7452,
      "ciel": 7453,
      "ĠTrois": 7454,
      "ĠBer": 7455,
      "ader": 7456,
      "Ġdevrait": 7457,
      "oyait": 7458,
      "Ġseraient": 7459,
      "Ġdispers": 7460,
      "Ġgronde": 7461,
      "Ġvenant": 7462,
      "Ġcommande": 7463,
      "autrefois": 7464,
      "Ġapproche": 7465,
      "Ã©lÃ©g": 7466,
      "Ġsentier": 7467,
      "artillerie": 7468,
      "immob": 7469,
      "Ġemporte": 7470,
      "Ġsoeurs": 7471,
      "Ġsouffert": 7472,
      "Ġsuivait": 7473,
      "grat": 7474,
      "espierre": 7475,
      "Ġcherchait": 7476,
      "Ġimmorte": 7477,
      "Ġmater": 7478,
      "Antoine": 7479,
      "Ġcouchant": 7480,
      "philosop": 7481,
      "Ġenviron": 7482,
      "Ġappartient": 7483,
      "bourgeois": 7484,
      "ĠXVI": 7485,
      "Ġfrapper": 7486,
      "Ã©crire": 7487,
      "Ġrencontrer": 7488,
      "Puisque": 7489,
      "Ġsouci": 7490,
      "Ġcapitale": 7491,
      "rÃ©pond": 7492,
      "Ġpopulation": 7493,
      "Ġtrembler": 7494,
      "ĠquinziÃ¨me": 7495,
      "Ġexcellent": 7496,
      "ĠrÃ©giment": 7497,
      "Ġordinaire": 7498,
      "Ġgagner": 7499,
      "ĠtirÃ©": 7500,
      "Ġtransfig": 7501,
      "Ġtransform": 7502,
      "ĠrÃ©vÃ©l": 7503,
      "ĠtÃ¢che": 7504,
      "Ġtrahison": 7505,
      "Ġannees": 7506,
      "Ã©crivain": 7507,
      "ĠNorvÃ¨ge": 7508,
      "roulement": 7509,
      "Ġrevolutions": 7510,
      "Certes": 7511,
      "_:": 7512,
      "iable": 7513,
      "mor": 7514,
      "rure": 7515,
      "salle": 7516,
      "tran": 7517,
      "Ġdent": 7518,
      "Ġdignes": 7519,
      "Ġlaine": 7520,
      "ennes": 7521,
      "envol": 7522,
      "Ġcage": 7523,
      "anvre": 7524,
      "Ġfureur": 7525,
      "Ġbad": 7526,
      "Ġboh": 7527,
      "urier": 7528,
      "Ġquiconque": 7529,
      "Ġparcour": 7530,
      "agent": 7531,
      "ĠÃ©tonnÃ©": 7532,
      "endorm": 7533,
      "ecl": 7534,
      "ĠMichel": 7535,
      "Ġpruss": 7536,
      "icpus": 7537,
      "ĠDel": 7538,
      "ĠintÃ©rieur": 7539,
      "oiss": 7540,
      "prenant": 7541,
      "oter": 7542,
      "ĠAvant": 7543,
      "ĠTuileries": 7544,
      "rah": 7545,
      "ĠBastille": 7546,
      "ada": 7547,
      "imitÃ©": 7548,
      "Ã©cart": 7549,
      "assÃ©e": 7550,
      "Ġesclave": 7551,
      "Ġatteint": 7552,
      "Ġappellent": 7553,
      "Ġ180": 7554,
      "Ġattitude": 7555,
      "Ġbarque": 7556,
      "Ġdonnant": 7557,
      "ĠdÃ©serte": 7558,
      "iquet": 7559,
      "Ġaccabl": 7560,
      "Ġverme": 7561,
      "Ġouvrir": 7562,
      "Ġconditions": 7563,
      "Ġsilh": 7564,
      "individu": 7565,
      "Ġconviction": 7566,
      "Ġoffici": 7567,
      "Ġsuffisait": 7568,
      "Ġroyaume": 7569,
      "ĠMontreuil": 7570,
      "Ġballes": 7571,
      "rujon": 7572,
      "Ġcroyons": 7573,
      "ĠmÃªlÃ©s": 7574,
      "dÃ©f": 7575,
      "ĠdÃ©mol": 7576,
      "ĠdÃ©mons": 7577,
      "Ġbords": 7578,
      "Ġcharmants": 7579,
      "ĠmenaÃ§": 7580,
      "Ġtranquill": 7581,
      "Asie": 7582,
      "ĠÃ©clairÃ©e": 7583,
      "oudrez": 7584,
      "ĠsÃ©ance": 7585,
      "Ġvalet": 7586,
      "Ġdormir": 7587,
      "Ġ1851": 7588,
      "Ġpersonnages": 7589,
      "Ġvictimes": 7590,
      "condam": 7591,
      "ĠpÃ©ril": 7592,
      "ĠÃ©pouvantable": 7593,
      "Ġtourbillon": 7594,
      "Ġquatorze": 7595,
      "Ġnecessaire": 7596,
      "Ġbarbarie": 7597,
      "!...": 7598,
      "dent": 7599,
      "dest": 7600,
      "front": 7601,
      "ilement": 7602,
      "nage": 7603,
      "pierre": 7604,
      "souver": 7605,
      "ysi": 7606,
      "esses": 7607,
      "onfl": 7608,
      "ĠpÃ¨res": 7609,
      "Ġprec": 7610,
      "Ġpudeur": 7611,
      "Ġcolere": 7612,
      "Ġaust": 7613,
      "ĠmÃ»": 7614,
      "Ġmouill": 7615,
      "Ġqueue": 7616,
      "isÃ©": 7617,
      "ĠfiÃ¨re": 7618,
      "Ġfolie": 7619,
      "inqu": 7620,
      "Ġrall": 7621,
      "Ġrendait": 7622,
      "alles": 7623,
      "Ġhaines": 7624,
      "ĠLam": 7625,
      "avent": 7626,
      "Ġsonner": 7627,
      "ĠÃ©chafaud": 7628,
      "icos": 7629,
      "ĠPeut": 7630,
      "site": 7631,
      "cieusement": 7632,
      "tÃ©n": 7633,
      "ĠToul": 7634,
      "parce": 7635,
      "parable": 7636,
      "uitÃ©": 7637,
      "ĠRev": 7638,
      "Ġmarches": 7639,
      "Ġgromm": 7640,
      "remarqu": 7641,
      "Ġassi": 7642,
      "Ġesc": 7643,
      "iÃ¨te": 7644,
      "Ġclasses": 7645,
      "Ġcommiss": 7646,
      "Ã©difice": 7647,
      "ĠrÃ©public": 7648,
      "Ġmesse": 7649,
      "Ġmonta": 7650,
      "ritoire": 7651,
      "pecteur": 7652,
      "Ġrecule": 7653,
      "Ã©vÃ©ne": 7654,
      "Ġportent": 7655,
      "Ġcharp": 7656,
      "ĠblÃªme": 7657,
      "encer": 7658,
      "Ġcolonne": 7659,
      "Ġvisages": 7660,
      "Ġsuppose": 7661,
      "Åĵurs": 7662,
      "Ġsourc": 7663,
      "Ġsourde": 7664,
      "ĠderniÃ¨res": 7665,
      "ĠconnaÃ®tre": 7666,
      "Ġconnaissait": 7667,
      "Ġenvie": 7668,
      "ĠdÃ©fend": 7669,
      "ĠWellington": 7670,
      "Ġretent": 7671,
      "Ġpenche": 7672,
      "Ġpencha": 7673,
      "Ġvastes": 7674,
      "ĠgÃ©nÃ©raux": 7675,
      "Ġsongea": 7676,
      "ĠdÃ©put": 7677,
      "ĠGrÃ¨ve": 7678,
      "ĠgalÃ¨res": 7679,
      "Ġfouet": 7680,
      "carp": 7681,
      "Ġancienne": 7682,
      "ĠÃĶ": 7683,
      "Ã¢timent": 7684,
      "Ġextraordinaire": 7685,
      "ĠgÃ©nÃ©reux": 7686,
      "Ġpousser": 7687,
      "Ġcampagne": 7688,
      "ĠenvoyÃ©": 7689,
      "ĠpropriÃ©tÃ©": 7690,
      "ĠÃ©chapper": 7691,
      "Ġfanf": 7692,
      "Ġgendarmes": 7693,
      "Ġdemeura": 7694,
      "Ġlointain": 7695,
      "ĠboÃ®te": 7696,
      "Ġsilencieux": 7697,
      "Ġberceau": 7698,
      "ĠGuldenlew": 7699,
      "ĠGaribaldi": 7700,
      "Ġbrouillard": 7701,
      "ysionomie": 7702,
      "Ġgolfe": 7703,
      ";_": 7704,
      "Comb": 7705,
      "SALTABADIL": 7706,
      "bras": 7707,
      "crois": 7708,
      "fille": 7709,
      "joutez": 7710,
      "lation": 7711,
      "perm": 7712,
      "roup": 7713,
      "raine": 7714,
      "singul": 7715,
      "uils": 7716,
      "veu": 7717,
      "well": 7718,
      "zar": 7719,
      "Ġloge": 7720,
      "Ġdetr": 7721,
      "Ġmel": 7722,
      "Ġfal": 7723,
      "Ġtamb": 7724,
      "orent": 7725,
      "asp": 7726,
      "ĠbÃ»": 7727,
      "Ġbasses": 7728,
      "Ġjup": 7729,
      "Ġauparavant": 7730,
      "Ġchancel": 7731,
      "ĠLib": 7732,
      "ĠCom": 7733,
      "ĠMadame": 7734,
      "ĠÃ©qu": 7735,
      "ĠÃ©glises": 7736,
      "icite": 7737,
      "ĠtrÃ©sor": 7738,
      "ĠSuisse": 7739,
      "ĠEspagne": 7740,
      "Ġsache": 7741,
      "ĠVIII": 7742,
      "Ġproph": 7743,
      "illy": 7744,
      "teste": 7745,
      "ĠFaites": 7746,
      "Ã§ais": 7747,
      "ĠGrantaire": 7748,
      "rÃ©able": 7749,
      "assaut": 7750,
      "ster": 7751,
      "ingen": 7752,
      "Ġcraindre": 7753,
      "ĠperpÃ©tu": 7754,
      "Ġcocher": 7755,
      "Ġderriere": 7756,
      "achicos": 7757,
      "Ġpossession": 7758,
      "Ġcharme": 7759,
      "iquait": 7760,
      "pee": 7761,
      "accus": 7762,
      "Ġorateur": 7763,
      "Pourtant": 7764,
      "Ġoffrait": 7765,
      "ĠcrÃ©ature": 7766,
      "Ġruelle": 7767,
      "Ġbesogne": 7768,
      "ĠrencontrÃ©": 7769,
      "aignÃ©e": 7770,
      "Ġsinistres": 7771,
      "Ġroche": 7772,
      "Ġoublier": 7773,
      "Ġprieure": 7774,
      "Ġflambeaux": 7775,
      "Ġprobable": 7776,
      "Ġcatholique": 7777,
      "Ġplanches": 7778,
      "ĠPhoebus": 7779,
      "ĠÃ©coutait": 7780,
      "lumiÃ¨re": 7781,
      "ĠquantitÃ©": 7782,
      "Ġcontemplation": 7783,
      "Bravos": 7784,
      "Ġfolle": 7785,
      "illustre": 7786,
      "Ġcavalerie": 7787,
      "Ġ93": 7788,
      "irgile": 7789,
      "Ġcatastrophe": 7790,
      "Ġcostu": 7791,
      "Ġgentilhomme": 7792,
      "CÃĪNE": 7793,
      "Lui": 7794,
      "]!": 7795,
      "ajoute": 7796,
      "boire": 7797,
      "crÃ©": 7798,
      "frage": 7799,
      "mauv": 7800,
      "nus": 7801,
      "nations": 7802,
      "pul": 7803,
      "uÃ©e": 7804,
      "vidence": 7805,
      "Ġcreux": 7806,
      "Ġtab": 7807,
      "itÃ´t": 7808,
      "inaires": 7809,
      "Ġbag": 7810,
      "ĠbÃ©g": 7811,
      "Ġrond": 7812,
      "Ã¨que": 7813,
      "Ã¨ches": 7814,
      "Ġglace": 7815,
      "Ġparap": 7816,
      "ĠLouvre": 7817,
      "ecriv": 7818,
      "Ġsonne": 7819,
      "ĠDis": 7820,
      "ueils": 7821,
      "onnante": 7822,
      "ĠEN": 7823,
      "Ġsachant": 7824,
      "ĠAug": 7825,
      "Ġmele": 7826,
      "Ġbriser": 7827,
      "orel": 7828,
      "Ġencomb": 7829,
      "ĠcarrÃ©e": 7830,
      "Ġsemaine": 7831,
      "Ġverte": 7832,
      "Ã©chelle": 7833,
      "Ġhauts": 7834,
      "Ġouvrage": 7835,
      "ĠprÃ©jug": 7836,
      "oussaint": 7837,
      "conse": 7838,
      "Dea": 7839,
      "Ġservait": 7840,
      "vah": 7841,
      "Ġcouvre": 7842,
      "tÃ©ritÃ©": 7843,
      "Ġmonstres": 7844,
      "offre": 7845,
      "Ġfaces": 7846,
      "eloppÃ©": 7847,
      "Ġretrouve": 7848,
      "ĠÃ©motion": 7849,
      "Ġmagistrat": 7850,
      "Ġchoisir": 7851,
      "ake": 7852,
      "Ġborne": 7853,
      "ĠtragÃ©die": 7854,
      "Ġstupide": 7855,
      "Ġsucces": 7856,
      "liberte": 7857,
      "corps": 7858,
      "ĠforcÃ©": 7859,
      "ĠrÃ©fug": 7860,
      "ĠFranÃ§ois": 7861,
      "Ġobstacle": 7862,
      "Ġfaveur": 7863,
      "feuille": 7864,
      "Ġgendarme": 7865,
      "ĠaisÃ©ment": 7866,
      "ĠrÃªveur": 7867,
      "Ãītat": 7868,
      "Ġviolemment": 7869,
      "ĠpÃªcheur": 7870,
      "Ġbureau": 7871,
      "esclavage": 7872,
      "Ġdialogue": 7873,
      "Ġdangereux": 7874,
      "89": 7875,
      "Ceux": 7876,
      "Celui": 7877,
      "Lors": 7878,
      "Mal": 7879,
      "MAR": 7880,
      "OP": 7881,
      "PÃ¨re": 7882,
      "Voltaire": 7883,
      "hospit": 7884,
      "och": 7885,
      "trop": 7886,
      "trib": 7887,
      "vert": 7888,
      "Ġignore": 7889,
      "esc": 7890,
      "oujours": 7891,
      "Ġsquel": 7892,
      "rece": 7893,
      "quent": 7894,
      "Ġah": 7895,
      "Ġvall": 7896,
      "Ġtente": 7897,
      "itÃ©e": 7898,
      "inviol": 7899,
      "Ġleve": 7900,
      "asions": 7901,
      "ĠbÃ©": 7902,
      "Ã©ter": 7903,
      "Ġdesp": 7904,
      "rime": 7905,
      "Ġchuch": 7906,
      "Ġchacune": 7907,
      "aval": 7908,
      "unite": 7909,
      "ĠprÃªtres": 7910,
      "acitÃ©": 7911,
      "Ġtroup": 7912,
      "ĠDigne": 7913,
      "ĠSal": 7914,
      "ĠStrasbourg": 7915,
      "Ġcomite": 7916,
      "ĠrÃ©pliqua": 7917,
      "ĠentiÃ¨rement": 7918,
      "uites": 7919,
      "angue": 7920,
      "ancier": 7921,
      "ĠÃ©coute": 7922,
      "igny": 7923,
      "iforme": 7924,
      "Ġcroul": 7925,
      "Ġclerc": 7926,
      "Ġtombes": 7927,
      "allais": 7928,
      "Ġmotif": 7929,
      "Ġparlent": 7930,
      "Ġtraverser": 7931,
      "Ġindividu": 7932,
      "Ġphrase": 7933,
      "Ġconnaissez": 7934,
      "ĠreprÃ©s": 7935,
      "Ġpubliques": 7936,
      "Ġmourant": 7937,
      "Ġhorizon": 7938,
      "Ġpromis": 7939,
      "Ã¢teaux": 7940,
      "cinqu": 7941,
      "Arc": 7942,
      "Ġsaints": 7943,
      "Ġartiste": 7944,
      "OIX": 7945,
      "Ġperdue": 7946,
      "commence": 7947,
      "Ġregardez": 7948,
      "Ġvoudrait": 7949,
      "Ġtremblait": 7950,
      "Ġtremblant": 7951,
      "ocratique": 7952,
      "Ġfrisson": 7953,
      "Ġintelligence": 7954,
      "ĠbrisÃ©": 7955,
      "Ġcouverts": 7956,
      "gardez": 7957,
      "Ġcomparti": 7958,
      "Ġmodes": 7959,
      "ĠGuillaume": 7960,
      "Ġendormi": 7961,
      "petite": 7962,
      "Ġinconnus": 7963,
      "ĠcÃ©lÃ¨bre": 7964,
      "ĠfidÃ¨le": 7965,
      "cifix": 7966,
      "Ġsereine": 7967,
      "ĠnumÃ©ro": 7968,
      "Ġridicule": 7969,
      "Bl": 7970,
      "Dem": 7971,
      "MaÃ®tre": 7972,
      "Trois": 7973,
      "bans": 7974,
      "cat": 7975,
      "cach": 7976,
      "dÃ©v": 7977,
      "gypte": 7978,
      "hy": 7979,
      "loi": 7980,
      "mat": 7981,
      "mÃ¨re": 7982,
      "mettre": 7983,
      "mod": 7984,
      "nÃ©cess": 7985,
      "ritÃ©": 7986,
      "rions": 7987,
      "Ġouvertes": 7988,
      "ĠdoÃ±a": 7989,
      "Ġpel": 7990,
      "Ġpic": 7991,
      "ouci": 7992,
      "oucher": 7993,
      "Ġsym": 7994,
      "ĠsantÃ©": 7995,
      "Ġcaill": 7996,
      "Ġcult": 7997,
      "anÃ§ait": 7998,
      "erais": 7999
    },
    "merges": [
      [
        "Ġ",
        "d"
      ],
      [
        "e",
        "s"
      ],
      [
        "Ġ",
        "l"
      ],
      [
        "e",
        "n"
      ],
      [
        "Ã",
        "©"
      ],
      [
        "a",
        "i"
      ],
      [
        "o",
        "n"
      ],
      [
        "Ġ",
        "p"
      ],
      [
        "o",
        "u"
      ],
      [
        "Ġ",
        "s"
      ],
      [
        "r",
        "e"
      ],
      [
        "Ġ",
        "c"
      ],
      [
        "a",
        "n"
      ],
      [
        "q",
        "u"
      ],
      [
        "Ġd",
        "e"
      ],
      [
        "e",
        "r"
      ],
      [
        "e",
        "t"
      ],
      [
        "Ġ",
        "a"
      ],
      [
        "Ġ",
        "Ġ"
      ],
      [
        "l",
        "e"
      ],
      [
        "Ġ",
        "m"
      ],
      [
        "Ġ",
        "qu"
      ],
      [
        "en",
        "t"
      ],
      [
        "t",
        "e"
      ],
      [
        "n",
        "e"
      ],
      [
        "a",
        "r"
      ],
      [
        "Ġl",
        "a"
      ],
      [
        "ai",
        "t"
      ],
      [
        "i",
        "l"
      ],
      [
        "i",
        "s"
      ],
      [
        "Ġ",
        "v"
      ],
      [
        "e",
        "u"
      ],
      [
        "Ġ",
        "f"
      ],
      [
        "Ġ",
        "t"
      ],
      [
        "Ġ",
        "et"
      ],
      [
        "i",
        "t"
      ],
      [
        "i",
        "n"
      ],
      [
        "Ġl",
        "e"
      ],
      [
        "o",
        "m"
      ],
      [
        "o",
        "r"
      ],
      [
        "Ġ",
        "u"
      ],
      [
        "Ã",
        "ł"
      ],
      [
        "e",
        "l"
      ],
      [
        "ou",
        "r"
      ],
      [
        "Ġ",
        "n"
      ],
      [
        "an",
        "t"
      ],
      [
        "a",
        "s"
      ],
      [
        "m",
        "e"
      ],
      [
        "a",
        "u"
      ],
      [
        "Ġ",
        "b"
      ],
      [
        "Ġ",
        "r"
      ],
      [
        "es",
        "t"
      ],
      [
        "ou",
        "s"
      ],
      [
        "u",
        "r"
      ],
      [
        "Ġl",
        "es"
      ],
      [
        "o",
        "i"
      ],
      [
        "ĠĠ",
        "ĠĠ"
      ],
      [
        "a",
        "t"
      ],
      [
        "u",
        "s"
      ],
      [
        "Ġ",
        "Ãł"
      ],
      [
        "an",
        "s"
      ],
      [
        "ai",
        "s"
      ],
      [
        "c",
        "h"
      ],
      [
        "Ã",
        "¨"
      ],
      [
        "Ġ",
        "j"
      ],
      [
        "c",
        "e"
      ],
      [
        "Ã©",
        "t"
      ],
      [
        "Ġ",
        "en"
      ],
      [
        "â",
        "Ģ"
      ],
      [
        "âĢ",
        "Ļ"
      ],
      [
        "i",
        "on"
      ],
      [
        "s",
        "e"
      ],
      [
        "Ġ",
        "g"
      ],
      [
        "Ġd",
        "es"
      ],
      [
        "Ġqu",
        "e"
      ],
      [
        "Ġu",
        "n"
      ],
      [
        "Ġqu",
        "i"
      ],
      [
        "a",
        "l"
      ],
      [
        "r",
        "o"
      ],
      [
        "r",
        "i"
      ],
      [
        "on",
        "t"
      ],
      [
        "Ġa",
        "u"
      ],
      [
        "m",
        "ent"
      ],
      [
        "d",
        "e"
      ],
      [
        "Ã",
        "ª"
      ],
      [
        "r",
        "es"
      ],
      [
        "Ġa",
        "v"
      ],
      [
        "Ġp",
        "ar"
      ],
      [
        "Ġd",
        "ans"
      ],
      [
        "Ġd",
        "u"
      ],
      [
        "-",
        "-"
      ],
      [
        "Ġ",
        "h"
      ],
      [
        "t",
        "re"
      ],
      [
        "Ġs",
        "e"
      ],
      [
        "i",
        "e"
      ],
      [
        "Ġ",
        "re"
      ],
      [
        "Ġ",
        "il"
      ],
      [
        "Ġc",
        "h"
      ],
      [
        "Ġ",
        "L"
      ],
      [
        "qu",
        "e"
      ],
      [
        "u",
        "i"
      ],
      [
        "a",
        "v"
      ],
      [
        "Ġp",
        "as"
      ],
      [
        "ou",
        "t"
      ],
      [
        "eu",
        "r"
      ],
      [
        "Ġ",
        "C"
      ],
      [
        "o",
        "l"
      ],
      [
        "Ġu",
        "ne"
      ],
      [
        "Ġc",
        "e"
      ],
      [
        "a",
        "g"
      ],
      [
        "on",
        "s"
      ],
      [
        "om",
        "me"
      ],
      [
        "Ġp",
        "l"
      ],
      [
        "r",
        "an"
      ],
      [
        "Ġ",
        "ne"
      ],
      [
        "Ġ",
        "est"
      ],
      [
        "i",
        "en"
      ],
      [
        "l",
        "es"
      ],
      [
        "Ġ",
        "Ã©t"
      ],
      [
        "el",
        "le"
      ],
      [
        "a",
        "b"
      ],
      [
        "o",
        "s"
      ],
      [
        "m",
        "p"
      ],
      [
        "ai",
        "n"
      ],
      [
        "I",
        "l"
      ],
      [
        "et",
        "te"
      ],
      [
        "i",
        "r"
      ],
      [
        "ou",
        "v"
      ],
      [
        "i",
        "er"
      ],
      [
        "Ã©",
        "e"
      ],
      [
        "Ġp",
        "our"
      ],
      [
        "u",
        "n"
      ],
      [
        "en",
        "d"
      ],
      [
        "Ã©",
        "s"
      ],
      [
        "a",
        "p"
      ],
      [
        "e",
        "c"
      ],
      [
        "eu",
        "x"
      ],
      [
        "Ġs",
        "ur"
      ],
      [
        "Ġ",
        "M"
      ],
      [
        "ĠĠĠĠ",
        "ĠĠĠĠ"
      ],
      [
        "Ġp",
        "r"
      ],
      [
        "f",
        "f"
      ],
      [
        "or",
        "t"
      ],
      [
        "a",
        "m"
      ],
      [
        "Ċ",
        "Ċ"
      ],
      [
        "i",
        "g"
      ],
      [
        "Ġv",
        "ous"
      ],
      [
        "Ġs",
        "on"
      ],
      [
        "Ã¨",
        "re"
      ],
      [
        "Ġ",
        "e"
      ],
      [
        "Ġ",
        "Ã©"
      ],
      [
        "ai",
        "ent"
      ],
      [
        "Ġpl",
        "us"
      ],
      [
        "a",
        "c"
      ],
      [
        "at",
        "ion"
      ],
      [
        "i",
        "c"
      ],
      [
        "Ġt",
        "r"
      ],
      [
        "Ġ",
        "D"
      ],
      [
        "Ġ",
        "Il"
      ],
      [
        "Ġ",
        "P"
      ],
      [
        "u",
        "t"
      ],
      [
        "u",
        "e"
      ],
      [
        "Ġt",
        "out"
      ],
      [
        "Ġj",
        "e"
      ],
      [
        "i",
        "v"
      ],
      [
        "ĠĠ",
        "Ġ"
      ],
      [
        "Ġ",
        "in"
      ],
      [
        "o",
        "is"
      ],
      [
        "p",
        "r"
      ],
      [
        "oi",
        "r"
      ],
      [
        "ch",
        "e"
      ],
      [
        "u",
        "is"
      ],
      [
        "Ġ",
        "o"
      ],
      [
        "on",
        "n"
      ],
      [
        "ar",
        "d"
      ],
      [
        "Ġ",
        "S"
      ],
      [
        "u",
        "x"
      ],
      [
        "Ġl",
        "ui"
      ],
      [
        "Ġc",
        "ette"
      ],
      [
        "m",
        "es"
      ],
      [
        "er",
        "s"
      ],
      [
        "Ġ",
        "J"
      ],
      [
        "g",
        "e"
      ],
      [
        "Ġd",
        "Ã©"
      ],
      [
        "ai",
        "re"
      ],
      [
        "il",
        "le"
      ],
      [
        "Ġc",
        "om"
      ],
      [
        "Ġav",
        "ait"
      ],
      [
        "Ġ",
        "E"
      ],
      [
        "on",
        "d"
      ],
      [
        "Ġs",
        "a"
      ],
      [
        "u",
        "ne"
      ],
      [
        "Ġ",
        "y"
      ],
      [
        "an",
        "d"
      ],
      [
        "Ġ",
        "V"
      ],
      [
        "ĠÃ©t",
        "ait"
      ],
      [
        "s",
        "i"
      ],
      [
        "l",
        "le"
      ],
      [
        "Ġp",
        "ro"
      ],
      [
        "Ġc",
        "omme"
      ],
      [
        "o",
        "in"
      ],
      [
        "Ã",
        "¢"
      ],
      [
        "b",
        "l"
      ],
      [
        "o",
        "t"
      ],
      [
        "Ġp",
        "eu"
      ],
      [
        "i",
        "re"
      ],
      [
        "il",
        "l"
      ],
      [
        "Ġs",
        "i"
      ],
      [
        "Ġav",
        "ec"
      ],
      [
        "om",
        "b"
      ],
      [
        "Ġ",
        "A"
      ],
      [
        "b",
        "le"
      ],
      [
        "p",
        "l"
      ],
      [
        "u",
        "re"
      ],
      [
        "Ġv",
        "o"
      ],
      [
        "c",
        "i"
      ],
      [
        "e",
        "au"
      ],
      [
        "Ċ",
        "ĠĠĠ"
      ],
      [
        "ab",
        "le"
      ],
      [
        "t",
        "Ã©"
      ],
      [
        "i",
        "ne"
      ],
      [
        "Ġn",
        "ous"
      ],
      [
        "Ġf",
        "ait"
      ],
      [
        "Ġc",
        "es"
      ],
      [
        "u",
        "m"
      ],
      [
        "i",
        "d"
      ],
      [
        "i",
        "que"
      ],
      [
        "e",
        "z"
      ],
      [
        "Ġg",
        "ran"
      ],
      [
        "Ġr",
        "Ã©"
      ],
      [
        "Ġ",
        "T"
      ],
      [
        "t",
        "es"
      ],
      [
        "Ġ",
        "on"
      ],
      [
        "u",
        "l"
      ],
      [
        "r",
        "a"
      ],
      [
        "Ã¨",
        "s"
      ],
      [
        "Ġd",
        "it"
      ],
      [
        "Ġ",
        "ent"
      ],
      [
        "ag",
        "e"
      ],
      [
        "Ċ",
        "Ġ"
      ],
      [
        "Ġde",
        "ux"
      ],
      [
        "i",
        "eu"
      ],
      [
        "Ġ",
        "B"
      ],
      [
        "Ġ",
        "F"
      ],
      [
        "p",
        "ar"
      ],
      [
        "u",
        "it"
      ],
      [
        "Ã",
        "¹"
      ],
      [
        "l",
        "l"
      ],
      [
        "Ã©t",
        "ait"
      ],
      [
        "Ġm",
        "e"
      ],
      [
        "Ġ",
        "_"
      ],
      [
        "i",
        "te"
      ],
      [
        "ou",
        "p"
      ],
      [
        "Ġm",
        "ais"
      ],
      [
        "Ã",
        "´"
      ],
      [
        "it",
        "Ã©"
      ],
      [
        "Ã©",
        "n"
      ],
      [
        "au",
        "t"
      ],
      [
        "on",
        "ne"
      ],
      [
        "Ġm",
        "on"
      ],
      [
        "en",
        "s"
      ],
      [
        "Q",
        "u"
      ],
      [
        "a",
        "d"
      ],
      [
        "Ã",
        "®"
      ],
      [
        "Ġs",
        "es"
      ],
      [
        "Ã©",
        "r"
      ],
      [
        "Ġqu",
        "el"
      ],
      [
        "l",
        "a"
      ],
      [
        "Ã",
        "§"
      ],
      [
        "Ġ",
        "ou"
      ],
      [
        "Ġ",
        "G"
      ],
      [
        "is",
        "t"
      ],
      [
        "Ġau",
        "x"
      ],
      [
        "Ġb",
        "ien"
      ],
      [
        "ou",
        "te"
      ],
      [
        "Ġ",
        "O"
      ],
      [
        "or",
        "d"
      ],
      [
        "eur",
        "s"
      ],
      [
        "Ġa",
        "r"
      ],
      [
        "Ãª",
        "tre"
      ],
      [
        "Ġb",
        "r"
      ],
      [
        "ĠL",
        "e"
      ],
      [
        "Ġ",
        "te"
      ],
      [
        "en",
        "ce"
      ],
      [
        "or",
        "te"
      ],
      [
        "Ġde",
        "v"
      ],
      [
        "Ġ",
        "elle"
      ],
      [
        "i",
        "m"
      ],
      [
        "Ãª",
        "me"
      ],
      [
        "r",
        "Ã©"
      ],
      [
        "o",
        "y"
      ],
      [
        "Ġ",
        "R"
      ],
      [
        "ĠJ",
        "e"
      ],
      [
        "Ġa",
        "p"
      ],
      [
        "v",
        "e"
      ],
      [
        "er",
        "t"
      ],
      [
        "qu",
        "es"
      ],
      [
        "Ã©",
        "c"
      ],
      [
        "Ġgran",
        "d"
      ],
      [
        "ap",
        "p"
      ],
      [
        "is",
        "s"
      ],
      [
        ".",
        "--"
      ],
      [
        "Ġs",
        "er"
      ],
      [
        "an",
        "g"
      ],
      [
        "Ġo",
        "Ã¹"
      ],
      [
        "Ã",
        "»"
      ],
      [
        "our",
        "s"
      ],
      [
        "Ġ",
        "H"
      ],
      [
        "o",
        "re"
      ],
      [
        "e",
        "m"
      ],
      [
        "Ã©",
        "es"
      ],
      [
        "ion",
        "s"
      ],
      [
        "Ġs",
        "u"
      ],
      [
        "Ġs",
        "ont"
      ],
      [
        "ai",
        "ne"
      ],
      [
        "an",
        "te"
      ],
      [
        "er",
        "re"
      ],
      [
        "as",
        "s"
      ],
      [
        "Ġ",
        "N"
      ],
      [
        "on",
        "c"
      ],
      [
        "o",
        "p"
      ],
      [
        "Ġd",
        "is"
      ],
      [
        "Ġs",
        "ans"
      ],
      [
        "ur",
        "s"
      ],
      [
        "el",
        "a"
      ],
      [
        "oi",
        "re"
      ],
      [
        "Ġe",
        "x"
      ],
      [
        "ĠL",
        "a"
      ],
      [
        "ant",
        "s"
      ],
      [
        "L",
        "e"
      ],
      [
        "Ġt",
        "ous"
      ],
      [
        "s",
        "t"
      ],
      [
        "i",
        "eux"
      ],
      [
        "b",
        "re"
      ],
      [
        "Ġf",
        "r"
      ],
      [
        "a",
        "y"
      ],
      [
        "i",
        "Ã¨re"
      ],
      [
        "Ġc",
        "ont"
      ],
      [
        "Ġm",
        "a"
      ],
      [
        "au",
        "x"
      ],
      [
        "an",
        "c"
      ],
      [
        "t",
        "er"
      ],
      [
        "om",
        "mes"
      ],
      [
        "d",
        "es"
      ],
      [
        "o",
        "it"
      ],
      [
        "o",
        "se"
      ],
      [
        "t",
        "i"
      ],
      [
        "eu",
        "re"
      ],
      [
        "Ġv",
        "ie"
      ],
      [
        "an",
        "ce"
      ],
      [
        "Ġc",
        "on"
      ],
      [
        "ou",
        "l"
      ],
      [
        "Ãª",
        "te"
      ],
      [
        "o",
        "c"
      ],
      [
        "Ġm",
        "ar"
      ],
      [
        "mp",
        "s"
      ],
      [
        "a",
        "le"
      ],
      [
        "t",
        "r"
      ],
      [
        "Ġs",
        "ous"
      ],
      [
        "ais",
        "s"
      ],
      [
        "Ġr",
        "es"
      ],
      [
        "ĠÃ©",
        "c"
      ],
      [
        "Ġ",
        "1"
      ],
      [
        "Ġg",
        "r"
      ],
      [
        "ro",
        "is"
      ],
      [
        ".",
        "."
      ],
      [
        "ĠĠĠĠĠĠĠĠ",
        "ĠĠĠĠĠĠĠĠ"
      ],
      [
        "Ġh",
        "omme"
      ],
      [
        "Ġm",
        "ain"
      ],
      [
        "ou",
        "le"
      ],
      [
        "Ġf",
        "or"
      ],
      [
        "il",
        "s"
      ],
      [
        "ig",
        "n"
      ],
      [
        "re",
        "m"
      ],
      [
        "Ġl",
        "eur"
      ],
      [
        "Ġj",
        "our"
      ],
      [
        "u",
        "g"
      ],
      [
        "i",
        "mp"
      ],
      [
        "J",
        "e"
      ],
      [
        "i",
        "f"
      ],
      [
        "t",
        "res"
      ],
      [
        "e",
        "ment"
      ],
      [
        "Ġpas",
        "s"
      ],
      [
        "Ġen",
        "c"
      ],
      [
        "or",
        "s"
      ],
      [
        "i",
        "b"
      ],
      [
        "Ġa",
        "s"
      ],
      [
        "Â",
        "«"
      ],
      [
        "Ġ",
        "es"
      ],
      [
        "Ġre",
        "g"
      ],
      [
        "ran",
        "ce"
      ],
      [
        "h",
        "omme"
      ],
      [
        "Ġm",
        "Ãªme"
      ],
      [
        "E",
        "t"
      ],
      [
        "a",
        "ce"
      ],
      [
        "i",
        "ent"
      ],
      [
        "Ġc",
        "ons"
      ],
      [
        "e",
        "x"
      ],
      [
        "Ġ",
        "U"
      ],
      [
        "v",
        "ous"
      ],
      [
        "c",
        "es"
      ],
      [
        "oin",
        "t"
      ],
      [
        "av",
        "ait"
      ],
      [
        "Ġde",
        "m"
      ],
      [
        "in",
        "g"
      ],
      [
        "omb",
        "re"
      ],
      [
        "Ġl",
        "Ãł"
      ],
      [
        "Ã»",
        "t"
      ],
      [
        "Ġp",
        "et"
      ],
      [
        "Ġc",
        "ela"
      ],
      [
        "au",
        "v"
      ],
      [
        "_",
        "."
      ],
      [
        "ch",
        "er"
      ],
      [
        "Ġtout",
        "es"
      ],
      [
        "i",
        "Ã¨"
      ],
      [
        "Ġ",
        "ai"
      ],
      [
        "is",
        "e"
      ],
      [
        "L",
        "a"
      ],
      [
        "ro",
        "it"
      ],
      [
        "ĠL",
        "es"
      ],
      [
        "Ġ",
        "Qu"
      ],
      [
        "end",
        "re"
      ],
      [
        "o",
        "le"
      ],
      [
        "t",
        "ion"
      ],
      [
        "Ġj",
        "us"
      ],
      [
        "Ġf",
        "aire"
      ],
      [
        "Ġp",
        "uis"
      ],
      [
        "ĠO",
        "n"
      ],
      [
        "Ġc",
        "r"
      ],
      [
        "Ġv",
        "en"
      ],
      [
        "Ġa",
        "c"
      ],
      [
        "pr",
        "it"
      ],
      [
        "ig",
        "ne"
      ],
      [
        "Ġc",
        "l"
      ],
      [
        "el",
        "les"
      ],
      [
        "ouv",
        "er"
      ],
      [
        "Ġm",
        "oi"
      ],
      [
        "Ġd",
        "i"
      ],
      [
        "Ġp",
        "er"
      ],
      [
        "Ġv",
        "oi"
      ],
      [
        "a",
        "Ã®"
      ],
      [
        "te",
        "ur"
      ],
      [
        "Ġc",
        "oup"
      ],
      [
        "as",
        "se"
      ],
      [
        "Ġm",
        "al"
      ],
      [
        "Ġenc",
        "ore"
      ],
      [
        "r",
        "ait"
      ],
      [
        "Ġcom",
        "m"
      ],
      [
        "Ġpeu",
        "t"
      ],
      [
        "Ġpar",
        "t"
      ],
      [
        "ĠP",
        "ar"
      ],
      [
        "om",
        "ent"
      ],
      [
        "au",
        "tre"
      ],
      [
        "Ġt",
        "ou"
      ],
      [
        "Ã©",
        "g"
      ],
      [
        "u",
        "bl"
      ],
      [
        "n",
        "es"
      ],
      [
        "ier",
        "s"
      ],
      [
        "Ġ",
        "ont"
      ],
      [
        "t",
        "u"
      ],
      [
        "Ġd",
        "ire"
      ],
      [
        "Ã©",
        "d"
      ],
      [
        "j",
        "e"
      ],
      [
        "Ġen",
        "f"
      ],
      [
        "om",
        "p"
      ],
      [
        "r",
        "ai"
      ],
      [
        "Ġp",
        "oint"
      ],
      [
        "Ġp",
        "res"
      ],
      [
        "ĠE",
        "t"
      ],
      [
        "Ġent",
        "re"
      ],
      [
        "Ġm",
        "ort"
      ],
      [
        "o",
        "b"
      ],
      [
        "Ġs",
        "eu"
      ],
      [
        "Ġc",
        "ri"
      ],
      [
        "Ġc",
        "ar"
      ],
      [
        "se",
        "ment"
      ],
      [
        "Â",
        "»"
      ],
      [
        "Ġ",
        "("
      ],
      [
        "Ġt",
        "u"
      ],
      [
        "ĠrÃ©",
        "p"
      ],
      [
        "Ġte",
        "mps"
      ],
      [
        "Ġc",
        "our"
      ],
      [
        "ĠÃ©t",
        "Ã©"
      ],
      [
        "Ġd",
        "ont"
      ],
      [
        "Ġc",
        "o"
      ],
      [
        "Ġr",
        "ien"
      ],
      [
        "ĠF",
        "rance"
      ],
      [
        "Ġquel",
        "que"
      ],
      [
        "Ġa",
        "t"
      ],
      [
        "Ġa",
        "ll"
      ],
      [
        "ain",
        "t"
      ],
      [
        "on",
        "g"
      ],
      [
        "eu",
        "t"
      ],
      [
        "Ġa",
        "m"
      ],
      [
        "Ġt",
        "oute"
      ],
      [
        "Ġm",
        "oment"
      ],
      [
        "Ġpeu",
        "p"
      ],
      [
        "e",
        "mp"
      ],
      [
        "i",
        "de"
      ],
      [
        "Ġt",
        "omb"
      ],
      [
        "Ġap",
        "p"
      ],
      [
        "ar",
        "i"
      ],
      [
        "Ġs",
        "uis"
      ],
      [
        "Ġn",
        "om"
      ],
      [
        "Ġtr",
        "av"
      ],
      [
        "ai",
        "r"
      ],
      [
        "ation",
        "s"
      ],
      [
        "Ġf",
        "er"
      ],
      [
        "in",
        "s"
      ],
      [
        "en",
        "se"
      ],
      [
        "Ġf",
        "ais"
      ],
      [
        "Ġs",
        "ort"
      ],
      [
        "ĠC",
        "e"
      ],
      [
        "Ġh",
        "ommes"
      ],
      [
        "ri",
        "v"
      ],
      [
        "re",
        "t"
      ],
      [
        "end",
        "ant"
      ],
      [
        "ou",
        "ff"
      ],
      [
        "Ã©",
        "l"
      ],
      [
        "Ã©",
        "p"
      ],
      [
        "Ġf",
        "em"
      ],
      [
        "ĠC",
        "h"
      ],
      [
        "en",
        "ir"
      ],
      [
        "ch",
        "es"
      ],
      [
        "al",
        "l"
      ],
      [
        "Ġre",
        "p"
      ],
      [
        "Ġc",
        "et"
      ],
      [
        "at",
        "t"
      ],
      [
        "h",
        "e"
      ],
      [
        "r",
        "ent"
      ],
      [
        "Ġe",
        "ff"
      ],
      [
        "it",
        "u"
      ],
      [
        "o",
        "tre"
      ],
      [
        "Ġm",
        "es"
      ],
      [
        "Ġa",
        "b"
      ],
      [
        "ic",
        "i"
      ],
      [
        "Ġvo",
        "tre"
      ],
      [
        "Ġreg",
        "ard"
      ],
      [
        "Ġch",
        "ose"
      ],
      [
        "au",
        "d"
      ],
      [
        "j",
        "ours"
      ],
      [
        "ai",
        "lle"
      ],
      [
        "Ġb",
        "on"
      ],
      [
        "m",
        "er"
      ],
      [
        "e",
        "v"
      ],
      [
        "ic",
        "t"
      ],
      [
        "o",
        "g"
      ],
      [
        "Ã",
        "ī"
      ],
      [
        "Ġp",
        "orte"
      ],
      [
        "Ġt",
        "our"
      ],
      [
        "il",
        "les"
      ],
      [
        "c",
        "l"
      ],
      [
        "s",
        "es"
      ],
      [
        "I",
        "I"
      ],
      [
        "Ġf",
        "l"
      ],
      [
        "Ġpet",
        "it"
      ],
      [
        "Ġm",
        "ont"
      ],
      [
        "i",
        "es"
      ],
      [
        "our",
        "d"
      ],
      [
        "Ġt",
        "rois"
      ],
      [
        "Ġf",
        "ut"
      ],
      [
        "r",
        "it"
      ],
      [
        "Ġn",
        "uit"
      ],
      [
        "ai",
        "ll"
      ],
      [
        "p",
        "ec"
      ],
      [
        "Ġse",
        "m"
      ],
      [
        "Ġ",
        "Ãªtre"
      ],
      [
        "Ġv",
        "ers"
      ],
      [
        "a",
        "de"
      ],
      [
        "Ġp",
        "rem"
      ],
      [
        "Ġre",
        "c"
      ],
      [
        "Ġ(",
        "_"
      ],
      [
        "p",
        "uis"
      ],
      [
        "at",
        "re"
      ],
      [
        "Ġj",
        "eu"
      ],
      [
        "Ġ1",
        "8"
      ],
      [
        "Ġb",
        "eau"
      ],
      [
        "pr",
        "Ã¨s"
      ],
      [
        "s",
        "c"
      ],
      [
        "Ã©",
        "ri"
      ],
      [
        "Ġdev",
        "ant"
      ],
      [
        "in",
        "t"
      ],
      [
        "en",
        "f"
      ],
      [
        "Ã©",
        "v"
      ],
      [
        "ĠPar",
        "is"
      ],
      [
        "Ġvo",
        "y"
      ],
      [
        "ĠE",
        "lle"
      ],
      [
        "Ġp",
        "le"
      ],
      [
        "Ġpro",
        "f"
      ],
      [
        "oin",
        "s"
      ],
      [
        "Ġs",
        "ent"
      ],
      [
        "Ġm",
        "ot"
      ],
      [
        "ent",
        "s"
      ],
      [
        "Ġd",
        "onc"
      ],
      [
        "or",
        "m"
      ],
      [
        "Ġil",
        "s"
      ],
      [
        "L",
        "es"
      ],
      [
        "d",
        "u"
      ],
      [
        "p",
        "os"
      ],
      [
        "Ġde",
        "r"
      ],
      [
        "Ġat",
        "t"
      ],
      [
        "qu",
        "i"
      ],
      [
        "Ġ",
        "imp"
      ],
      [
        "Ġb",
        "ar"
      ],
      [
        "ie",
        "d"
      ],
      [
        "Ġd",
        "onn"
      ],
      [
        "Ġg",
        "u"
      ],
      [
        "Ġqu",
        "and"
      ],
      [
        "Ġd",
        "ou"
      ],
      [
        "_",
        ","
      ],
      [
        "s",
        "us"
      ],
      [
        "qu",
        "el"
      ],
      [
        "ar",
        "t"
      ],
      [
        "ĠD",
        "ieu"
      ],
      [
        "i",
        "eur"
      ],
      [
        "Ġt",
        "Ãªte"
      ],
      [
        "us",
        "si"
      ],
      [
        "Ġp",
        "ort"
      ],
      [
        "Ġre",
        "v"
      ],
      [
        "Ġf",
        "ois"
      ],
      [
        ".",
        "_"
      ],
      [
        "res",
        "s"
      ],
      [
        "ent",
        "e"
      ],
      [
        "Ġy",
        "eux"
      ],
      [
        "ment",
        "s"
      ],
      [
        "ari",
        "us"
      ],
      [
        "ien",
        "s"
      ],
      [
        "ai",
        "l"
      ],
      [
        "u",
        "es"
      ],
      [
        "Ġvoi",
        "x"
      ],
      [
        "u",
        "p"
      ],
      [
        "ag",
        "ne"
      ],
      [
        "ĠÃ©",
        "p"
      ],
      [
        "Ġn",
        "i"
      ],
      [
        "ag",
        "es"
      ],
      [
        "Ġd",
        "roit"
      ],
      [
        "ut",
        "ion"
      ],
      [
        "a",
        "ch"
      ],
      [
        "g",
        "l"
      ],
      [
        "Ġtou",
        "jours"
      ],
      [
        "ro",
        "p"
      ],
      [
        "Ġf",
        "aut"
      ],
      [
        "Ġpeup",
        "le"
      ],
      [
        "Ġa",
        "d"
      ],
      [
        "Ġp",
        "os"
      ],
      [
        "Ġp",
        "ouv"
      ],
      [
        "ĠD",
        "e"
      ],
      [
        "ag",
        "n"
      ],
      [
        "g",
        "n"
      ],
      [
        "Ċ",
        "ĠĠĠĠĠĠĠĠ"
      ],
      [
        "v",
[...]
